{"<s>":0,"<pad>":1,"</s>":2,"<unk>":3,"<mask>":4,"!":5,"\"":6,"#":7,"$":8,"%":9,"&":10,"'":11,"(":12,")":13,"*":14,"+":15,",":16,"-":17,".":18,"/":19,"0":20,"1":21,"2":22,"3":23,"4":24,"5":25,"6":26,"7":27,"8":28,"9":29,":":30,";":31,"<":32,"=":33,">":34,"?":35,"@":36,"A":37,"B":38,"C":39,"D":40,"E":41,"F":42,"G":43,"H":44,"I":45,"J":46,"K":47,"L":48,"M":49,"N":50,"O":51,"P":52,"Q":53,"R":54,"S":55,"T":56,"U":57,"V":58,"W":59,"X":60,"Y":61,"Z":62,"[":63,"\\":64,"]":65,"^":66,"_":67,"`":68,"a":69,"b":70,"c":71,"d":72,"e":73,"f":74,"g":75,"h":76,"i":77,"j":78,"k":79,"l":80,"m":81,"n":82,"o":83,"p":84,"q":85,"r":86,"s":87,"t":88,"u":89,"v":90,"w":91,"x":92,"y":93,"z":94,"{":95,"|":96,"}":97,"~":98,"¡":99,"¢":100,"£":101,"¤":102,"¥":103,"¦":104,"§":105,"¨":106,"©":107,"ª":108,"«":109,"¬":110,"®":111,"¯":112,"°":113,"±":114,"²":115,"³":116,"´":117,"µ":118,"¶":119,"·":120,"¸":121,"¹":122,"º":123,"»":124,"¼":125,"½":126,"¾":127,"¿":128,"À":129,"Á":130,"Â":131,"Ã":132,"Ä":133,"Å":134,"Æ":135,"Ç":136,"È":137,"É":138,"Ê":139,"Ë":140,"Ì":141,"Í":142,"Î":143,"Ï":144,"Ð":145,"Ñ":146,"Ò":147,"Ó":148,"Ô":149,"Õ":150,"Ö":151,"×":152,"Ø":153,"Ù":154,"Ú":155,"Û":156,"Ü":157,"Ý":158,"Þ":159,"ß":160,"à":161,"á":162,"â":163,"ã":164,"ä":165,"å":166,"æ":167,"ç":168,"è":169,"é":170,"ê":171,"ë":172,"ì":173,"í":174,"î":175,"ï":176,"ð":177,"ñ":178,"ò":179,"ó":180,"ô":181,"õ":182,"ö":183,"÷":184,"ø":185,"ù":186,"ú":187,"û":188,"ü":189,"ý":190,"þ":191,"ÿ":192,"Ā":193,"ā":194,"Ă":195,"ă":196,"Ą":197,"ą":198,"Ć":199,"ć":200,"Ĉ":201,"ĉ":202,"Ċ":203,"ċ":204,"Č":205,"č":206,"Ď":207,"ď":208,"Đ":209,"đ":210,"Ē":211,"ē":212,"Ĕ":213,"ĕ":214,"Ė":215,"ė":216,"Ę":217,"ę":218,"Ě":219,"ě":220,"Ĝ":221,"ĝ":222,"Ğ":223,"ğ":224,"Ġ":225,"ġ":226,"Ģ":227,"ģ":228,"Ĥ":229,"ĥ":230,"Ħ":231,"ħ":232,"Ĩ":233,"ĩ":234,"Ī":235,"ī":236,"Ĭ":237,"ĭ":238,"Į":239,"į":240,"İ":241,"ı":242,"Ĳ":243,"ĳ":244,"Ĵ":245,"ĵ":246,"Ķ":247,"ķ":248,"ĸ":249,"Ĺ":250,"ĺ":251,"Ļ":252,"ļ":253,"Ľ":254,"ľ":255,"Ŀ":256,"ŀ":257,"Ł":258,"ł":259,"Ń":260,"Ġa":261,"ĠĠ":262,"in":263,"Ġs":264,"Ġf":265,"le":266,"Ġt":267,"on":268,"nd":269,"ed":270,"Ġc":271,"at":272,"er":273,"es":274,"ing":275,"ĠĠĠĠ":276,"it":277,"Ġb":278,"ro":279,"Ġw":280,"ur":281,"Ġp":282,"Ġand":283,"is":284,"ck":285,"he":286,"Ġd":287,"or":288,"la":289,"et":290,"en":291,"ig":292,"Ġl":293,"eat":294,"ra":295,"rom":296,"st":297,"Ġfrom":298,"ar":299,"eatur":300,"Ġst":301,"ou":302,"Ġco":303,"eaturing":304,"tt":305,"re":306,"ic":307,"il":308,"ĠĠĠĠĠĠĠĠ":309,"Ġm":310,"Ġthe":311,"ev":312,"al":313,"an":314,"el":315,"tton":316,"Ġ\"":317,"Ġth":318,"leev":319,"Ġfeaturing":320,"ne":321,"id":322,"Ġto":323,"igh":324,"Ġsleev":325,"ith":326,"Ġo":327,"Ġsh":328,"Ġwith":329,"Ġh":330,"oo":331,"ir":332,"int":333,"ont":334,"Ġsleeves":335,"Ġfa":336,"neck":337,"ch":338,"Ġe":339,"Ġle":340,"th":341,"Ġy":342,"Ġpo":343,"Ġr":344,"im":345,"Ġfr":346,"Ġin":347,"Ġg":348,"cket":349,"ist":350,"ong":351,"ip":352,"ĠT":353,"ight":354,"ort":355,"Ġan":356,"ff":357,"as":358,"Ġhe":359,"Ġfront":360,"ening":361,"Ġlong":362,"ign":363,"ng":364,"Ġfast":365,"Ġbu":366,"Ġcotton":367,"Ġfastening":368,"ĠS":369,"Ġneck":370,"ĠF":371,"ss":372,"ct":373,"rint":374,"ĠM":375,"our":376,"Ġfit":377,"esign":378,"ĠC":379,"ngth":380,"ce":381,"ers":382,"Ġwa":383,"ess":384,"Ġhem":385,"Ġpocket":386,"Ġthis":387,"Ġdesign":388,"rou":389,"Ġbutton":390,"ent":391,"Ġprint":392,"irt":393,"ol":394,"Ġre":395,"Ġwaist":396,"ion":397,".\"":398,"ail":399,"Ġis":400,"ted":401,"Ġof":402,"Ġstra":403,"Ġfor":404,"ow":405,"ĠA":406,"ly":407,"ress":408,"Ġj":409,"ide":410,"lar":411,"Ġshort":412,"and":413,"Ġlength":414,"ĠP":415,"uff":416,"ie":417,"lack":418,"ite":419,"pp":420,"Ġcol":421,"Ġsil":422,"Ġpockets":423,"ble":424,"ve":425,"etail":426,"Ġon":427,"ad":428,"ĠĠĠĠĠĠĠĠĠĠĠĠĠĠĠĠ":429,"Ġdress":430,"Ġv":431,"ul":432,"ĠI":433,"Ġsty":434,"Ġyour":435,"Ġyou":436,"Ġstr":437,"ated":438,"Ġz":439,"Ġk":440,"Ġdetail":441,"se":442,"ter":443,"sh":444,"lu":445,"ack":446,"ĠB":447,"Ġit":448,"mb":449,"Ġloo":450,"og":451,"Ġzip":452,"Ġstraight":453,"Ġn":454,"Ġhigh":455,"hite":456,"ĠD":457,"ĠL":458,"ĠFeaturing":459,"Ġstyle":460,"qu":461,"round":462,"Ġu":463,"Ġla":464,"ot":465,"Ġsl":466,"om":467,"led":468,"ib":469,"ine":470,"Ġbe":471,"Ġround":472,"ĠĠĠ":473,"Ġble":474,"ps":475,"Ġback":476,"Ġthat":477,"Ġblend":478,"Ġside":479,"ver":480,"am":481,"her":482,"ogo":483,"Ġcuff":484,"Black":485,"Ġlogo":486,"lo":487,"Ġch":488,"less":489,"ĠĠĠĠĠĠĠĠĠĠĠ":490,"est":491,"pped":492,"ish":493,"ak":494,"Ġsk":495,"ĠG":496,"Ġcuffs":497,"Ġbel":498,"ure":499,"te":500,"ld":501,"ropped":502,"ĠW":503,"ear":504,"Ġmid":505,"ll":506,"Ġsu":507,"Ġtr":508,"Ġrib":509,"Ġcollar":510,"Ġfl":511,"ay":512,"Ġcon":513,"ise":514,"out":515,"ĠTh":516,"ut":517,"bed":518,"ard":519,"Ġemb":520,"Ġribbed":521,"Ġpat":522,"ap":523,"ric":524,"ered":525,"ould":526,"ĠR":527,"mp":528,"Ġsleeve":529,"lue":530,"ag":531,"ell":532,"lass":533,"ant":534,"Ġsilk":535,"Ġkn":536,"ĠV":537,"Ġas":538,"ction":539,"iz":540,"rap":541,"ust":542,"ink":543,"shirt":544,"ood":545,"ive":546,"Ġsp":547,"Ġtop":548,"Ġcropped":549,"str":550,"Ġso":551,"Ġse":552,"band":553,"ft":554,"Ġbo":555,"Ġfitted":556,"ect":557,"able":558,"hou":559,"ĠE":560,"lassic":561,"Ġwaistband":562,"ool":563,"one":564,"oral":565,"ade":566,"houet":567,"ash":568,"Ġshould":569,"Ġdetails":570,"Ġsilhouet":571,"ĠThis":572,"White":573,"Ġfloral":574,"ep":575,"Ġskirt":576,"ment":577,"ial":578,"Ġ1":579,"nt":580,"ult":581,"rous":582,"ĠH":583,"Ġtie":584,"ik":585,"Ġtw":586,"Ġsleeveless":587,"Ġsw":588,"Ġsilhouette":589,"ather":590,"etch":591,"ĠO":592,"Ġshirt":593,"Ġat":594,"Ġstrip":595,"Ġknit":596,"Ġlook":597,"ill":598,"Ġclassic":599,"Ġrear":600,"last":601,"mm":602,"Ġleg":603,"Ġblack":604,"ĠIt":605,"Ġbelt":606,"Ġtrous":607,"Ġwhite":608,"roid":609,"Ġall":610,"ese":611,"Ġrise":612,"Ġtrousers":613,"tern":614,"Ġstretch":615,"Ġad":616,"icated":617,"els":618,"all":619,"Ġcre":620,"Ġple":621,"Ġembroid":622,"ĠN":623,"old":624,"ate":625,"erf":626,"un":627,"Ġconce":628,"Ġwool":629,"Ġja":630,"aled":631,"ia":632,"xed":633,"Ġte":634,"art":635,"Ġconcealed":636,"Ġblue":637,"Ġits":638,"ĠThe":639,"Ġelast":640,"Ġsc":641,"od":642,"ĠJ":643,"Ġloops":644,"Ġup":645,"Ġpattern":646,"ean":647,"Ġor":648,"Ġflar":649,"ab":650,"Ġflared":651,"length":652,"ched":653,"hic":654,"ry":655,"\"\"":656,"Ġbra":657,"Ġex":658,"Ġare":659,"Ġnot":660,"Ġout":661,"ery":662,"ake":663,"Ġlin":664,"line":665,"Ġtrim":666,"laxed":667,"Ġruff":668,"Ġelasticated":669,"Ġfin":670,"Ġjacket":671,"Ġby":672,"iv":673,"etric":674,"Ġslit":675,"Ġde":676,"Ġslim":677,"Ġrelaxed":678,"ast":679,"ian":680,"wn":681,"Ġpleated":682,"ere":683,"Ġcom":684,"Ġne":685,"ĠĠĠĠĠĠĠĠĊ":686,"ĠĠĠĠĊ":687,"Ġpla":688,"Ġleather":689,"ĠK":690,"Ġcont":691,"âĢ":692,"ini":693,"Ġtwo":694,"op":695,"ain":696,"Ġev":697,"Ġfeatur":698,"um":699,"Ġcrew":700,"if":701,"ĠY":702,"ater":703,"Ġthese":704,"eans":705,"Ġpan":706,"Ġperf":707,"Ġwide":708,"ized":709,"raw":710,"lection":711,"vers":712,"Ġint":713,"Ġfla":714,"olour":715,"'s":716,"own":717,"Ġembroidered":718,"Ġhas":719,"Ġchest":720,"ouse":721,"ultic":722,"Ġpie":723,"ished":724,"ach":725,"Ġbl":726,"raf":727,"Ġprinted":728,"rafted":729,"Ġwh":730,"av":731,"sp":732,"ymm":733,"are":734,"Ġoff":735,"ymmetric":736,"Ġbelted":737,"Ġasymmetric":738,"Ġfe":739,"ments":740,"Ġstriped":741,"enim":742,"Ġhood":743,"Ġbrand":744,"ree":745,"xt":746,"Ġone":747,"Ġcr":748,"Ġshe":749,"Ġfeatures":750,"ulticolour":751,"Ġjeans":752,"Ġwear":753,"co":754,"leg":755,"Ġgre":756,"ĠSt":757,"ens":758,"Ġover":759,"Ġshoulders":760,"ey":761,"Ġpro":762,"ux":763,"Ġperfect":764,"ĠĠĠĠĠĠĠĠĠĠĠĠĠĠĠĠĠĠĠĠĠĠĠĠĠĠĠĠĠĠĠĠ":765,"ge":766,"ile":767,"Ġcomf":768,"ation":769,"Ġdraw":770,"wear":771,"versized":772,"cc":773,"Ġal":774,"âĢĻ":775,"Ġsweat":776,"Ġpatch":777,"ud":778,"rast":779,"ous":780,"Ġoversized":781,"Ġbr":782,"Ġlace":783,"string":784,"Ġcut":785,"eight":786,"Ġblouse":787,"ity":788,"Ġdrawstring":789,"ĠU":790,"Ġfly":791,"ON":792,"uct":793,"ore":794,"Ġcontrast":795,"Ġstraps":796,"Ġpa":797,"Ġsoft":798,"Ġdenim":799,"print":800,"Ġ&":801,"Ġpink":802,"Ġcan":803,"ern":804,"ike":805,"Ġlight":806,"ave":807,"ved":808,"Ġju":809,"Ġadd":810,"Ġlap":811,"per":812,"mper":813,"ark":814,"Ġskin":815,"tone":816,"os":817,"Ġwor":818,"Ġwill":819,"be":820,"ured":821,"Ġop":822,"ouble":823,"ase":824,"Ġmo":825,"Ġwe":826,"LY":827,"Ġpiece":828,"ick":829,"ces":830,"ape":831,"Ġcur":832,"Ġshoulder":833,"ime":834,"..":835,"ature":836,"Ġmade":837,"laz":838,"me":839,"Ġmet":840,"ĠMade":841,"Ġcomfort":842,"imp":843,"Ġour":844,"ely":845,"gh":846,"Ġ2":847,"Ġtra":848,"Ġsm":849,"Ġtext":850,"Ġfinish":851,"Ġclo":852,"Ġjumper":853,"ino":854,"ashm":855,"tle":856,"ashmere":857,"Ġen":858,"Ġeff":859,"ined":860,"ies":861,"Ġmidi":862,"Ġro":863,"Ġfab":864,"ied":865,"aterial":866,"elt":867,"Blue":868,"man":869,"ĠĠĠĠĠĠĠĠĠĠĠĠĊ":870,"Ġ-":871,"cy":872,"Ġdropped":873,"ignature":874,"Ġab":875,"Ġfabric":876,"gu":877,"Ġ3":878,"ĠĠĠĠĠĠĠĠĠĠĠĠĠĠĠĠĠĠĠĠĠĠĠĠĠĠĠĠĊ":879,"ara":880,"Ġdo":881,"age":882,"blend":883,"ped":884,"Ġevery":885,"Ġflap":886,"ired":887,"Ġra":888,"Ġcurved":889,"Ġlapels":890,"Ġdouble":891,"Ġruffled":892,"lazer":893,"reast":894,"Ġred":895,"ally":896,"ome":897,"ĠItal":898,"ĠĊ":899,"reasted":900,"Ġblazer":901,"ny":902,"ĠCh":903,"ardro":904,"uction":905,"Multicolour":906,"ice":907,"hen":908,"uit":909,"Th":910,"ĠCol":911,"ĠYou":912,"Ġwrap":913,"us":914,"Ġsignature":915,"allic":916,"OU":917,"oot":918,"Ġcolor":919,"end":920,"ov":921,"Ġpoint":922,"Ġruffle":923,"dy":924,"Ġmake":925,"ardrobe":926,"Ġshape":927,"raphic":928,"ĠMar":929,"Ġgold":930,"Ġfive":931,"gular":932,"ĠIn":933,"Ġcashmere":934,"eather":935,"Ġsheer":936,"ett":937,"Ġshorts":938,"rown":939,"ailor":940,"Ġgo":941,"Ġ(":942,"Ġday":943,"ull":944,"struction":945,"arm":946,"ouch":947,"ole":948,"Ġun":949,"Ġcoat":950,"Ġru":951,"ige":952,"ec":953,"Ġmetallic":954,"Ġembell":955,"ek":956,"Ġlay":957,"Ġwardrobe":958,"ue":959,"TI":960,"over":961,"Ġmod":962,"Ġneckline":963,"Ġar":964,"Ġed":965,"Ġag":966,"Ġ5":967,"ai":968,"Ã©":969,"VE":970,"avy":971,"spired":972,"Ġlinen":973,"weight":974,"Ġdrap":975,"Ġhave":976,"Ġche":977,"Ġgreen":978,"Ġgraphic":979,"fit":980,"SI":981,"Ġlike":982,"Ġpanels":983,"ove":984,"SC":985,"Ġclos":986,"Ġ10":987,"que":988,"The":989,"ual":990,"up":991,"Ġsequ":992,"Ġapp":993,"Ġwelt":994,"Ġmini":995,"ond":996,"Ġown":997,"ings":998,"Ġcollection":999,"Ġany":1000,"ition":1001,"Ġtime":1002,"Ġtailor":1003,"OUS":1004,"ĠPO":1005,"imal":1006,"Ġregular":1007,"IOUS":1008,"Ġeffect":1009,"Ġgar":1010,"ory":1011,"Ġbik":1012,"ĠSw":1013,"ler":1014,"TIVE":1015,"ĠCON":1016,"Ġsequin":1017,"SITIVE":1018,"SCIOUS":1019,"ĠCONSCIOUS":1020,"SITIVELY":1021,"Ġknitted":1022,"Ġfeel":1023,"ĠPOSITIVELY":1024,"to":1025,"Ġlux":1026,"Ġqu":1027,"Ġopen":1028,"Ġmodern":1029,"Ġloose":1030,"lex":1031,"ming":1032,"ns":1033,"ank":1034,"Ġdown":1035,"au":1036,"Ġpr":1037,"Ġus":1038,"ac":1039,"ĠCollection":1040,"eep":1041,"Ġlining":1042,"Ġtur":1043,"eet":1044,"Ġthree":1045,"ize":1046,"Ġnotched":1047,"esh":1048,"Ġconstruction":1049,"ful":1050,"Ġcent":1051,"lock":1052,"ching":1053,"Ġeas":1054,"ĠOn":1055,"Ġpol":1056,"Light":1057,"Ġlow":1058,"Ġno":1059,"Ġdraped":1060,"Ġjust":1061,"Ġstrap":1062,"Ġmust":1063,"Ġhand":1064,"Gre":1065,"les":1066,"From":1067,"Ġnew":1068,"ift":1069,"ĠSh":1070,"ĠWe":1071,"ber":1072,"read":1073,"ants":1074,"ĠLa":1075,"Ġet":1076,"ral":1077,"sleev":1078,"Ġpanel":1079,"iss":1080,"ook":1081,"Ġmore":1082,"ever":1083,"Ġeleg":1084,"Ġwash":1085,"Ġsupp":1086,"This":1087,"Ġcard":1088,"Ġcomp":1089,"Ġbut":1090,"ph":1091,"ĠCrafted":1092,"Ġcolour":1093,"ellow":1094,"Ġstit":1095,"Ġfra":1096,"Ġinto":1097,"ary":1098,"Ġgarments":1099,"rough":1100,"ason":1101,"Ġlightweight":1102,"Ġcro":1103,"ĠCom":1104,"ded":1105,"aist":1106,"Ġey":1107,"ores":1108,"Ġcool":1109,"ĠAl":1110,"imwear":1111,"shion":1112,"Ġclosure":1113,"Ġacc":1114,"ound":1115,"Ġcheck":1116,"ating":1117,"Ġbikini":1118,"Ġethic":1119,"Ġcrafted":1120,"Ġembroidery":1121,"Ġpointed":1122,"ench":1123,"akes":1124,"Ġtailored":1125,"Ġcreat":1126,"Ġtheir":1127,"min":1128,"ĠĠĠĠĠĠĠĠĠĠĠĠĠĠĠĠĠĠĠĠĠĠĠĠĠĠĠĠĠĠĠĠĊ":1129,"ling":1130,"Ġtrimming":1131,"tic":1132,"ĠGood":1133,"Ġethical":1134,"arter":1135,"way":1136,"ential":1137,"ale":1138,"Ġind":1139,"ious":1140,"Ġtried":1141,"Ġtouch":1142,"Ġhal":1143,"etails":1144,"rise":1145,"tti":1146,"Ġkey":1147,"AN":1148,"Ġ100":1149,"Ġbow":1150,"Ġdesigned":1151,"waist":1152,"ract":1153,"ency":1154,"Ġscores":1155,"act":1156,"Ġimp":1157,"Ġruched":1158,"Ġdi":1159,"quare":1160,"ka":1161,"Ġagency":1162,"Ġcontrasting":1163,"ĠSwimwear":1164,"Ġcar":1165,"Ġstand":1166,"Ġdetailing":1167,"Ġsweatshirt":1168,"Ġtextured":1169,"Ġwhen":1170,"Ġeasy":1171,"ich":1172,"row":1173,"fr":1174,"Ġpow":1175,"nder":1176,"Ġdec":1177,"igan":1178,"thing":1179,"ĠAnd":1180,"lean":1181,"io":1182,"ax":1183,"ior":1184,"Ġneed":1185,"Pink":1186,"Ġsquare":1187,"Ġgather":1188,"ther":1189,"suit":1190,"item":1191,"ible":1192,"Ġitem":1193,"Ġskinny":1194,"ĠZ":1195,"Ġthrough":1196,"Ġsn":1197,"Ġwell":1198,"hetti":1199,"aghetti":1200,"Ġspaghetti":1201,"Ġwarm":1202,"Ġpair":1203,"ose":1204,"Ġcardigan":1205,"Details":1206,"asual":1207,"Ġget":1208,"Ġpe":1209,"ind":1210,"ang":1211,"RE":1212,"orn":1213,"quarter":1214,"lan":1215,"Ġshow":1216,"Ġsweater":1217,"Be":1218,"ĠBr":1219,"Ġthey":1220,"Ġfashion":1221,"Navy":1222,"ier":1223,"Ġcomfortable":1224,"Ġvers":1225,"gan":1226,"ĠMaterial":1227,"ents":1228,"Multicoloured":1229,"Ġbott":1230,"Ġpart":1231,"zy":1232,"ee":1233,"Ġluxur":1234,"Ġgrey":1235,"Ġ4":1236,"Ġdeep":1237,"Ġstripes":1238,"Ġlab":1239,"just":1240,"ooth":1241,"esigned":1242,"imm":1243,"so":1244,"ĠPle":1245,"Ġedg":1246,"leek":1247,"Ġplacket":1248,"ium":1249,"tra":1250,"onic":1251,"orted":1252,"ĠWith":1253,"gin":1254,"ush":1255,"Ġdist":1256,"Ġfun":1257,"Ġbox":1258,"aut":1259,"ons":1260,"em":1261,"Ġshift":1262,"Ġmat":1263,"Ġmaterial":1264,"Ġhoodie":1265,"Ġband":1266,"oop":1267,"mmer":1268,"Âł":1269,"Ġpants":1270,"Ġsilver":1271,"ipp":1272,"AT":1273,"Ġele":1274,"Ġchain":1275,"Ġgive":1276,"Ġset":1277,"Ġfine":1278,"ream":1279,"Ġkne":1280,"Ġwhat":1281,"day":1282,"ĠItalian":1283,"Ġmax":1284,"inspired":1285,"Ġcover":1286,"Ġkeep":1287,"af":1288,"Ġflat":1289,"alm":1290,"breasted":1291,"ides":1292,"Ġess":1293,"Ġwearing":1294,"ecial":1295,"Ġcentral":1296,"Ġseason":1297,"Ġelegant":1298,"irgin":1299,"atin":1300,"ord":1301,"ittle":1302,"Ġembellish":1303,"Ġbuttons":1304,"ĠAlex":1305,"ĠItaly":1306,"Ġlayered":1307,"Ġcasual":1308,"ingle":1309,"Ġzipped":1310,"yle":1311,"Ġlove":1312,"ance":1313,"Ġbreasted":1314,"ering":1315,"iend":1316,"Ġeye":1317,"Ġpuff":1318,"Ġbottom":1319,"Ġmulticolour":1320,"rop":1321,"Ġtake":1322,"justable":1323,"ical":1324,"ĠIs":1325,"ede":1326,"back":1327,"opard":1328,"atur":1329,"enz":1330,"Ġsweet":1331,"stal":1332,"allo":1333,"Red":1334,"Ġstripe":1335,"...":1336,"kin":1337,"Ġac":1338,"uc":1339,"Ġstruct":1340,"ĠSp":1341,"Ġclean":1342,"Ġbrown":1343,"Ġseam":1344,"ts":1345,"Ġfull":1346,"Ġsport":1347,"ĠImp":1348,"Ġbest":1349,"Ġanimal":1350,"Ġessential":1351,"ĠAd":1352,"sleeve":1353,"Ġdoes":1354,"ran":1355,"ana":1356,"Ġfring":1357,"Ġvirgin":1358,"Ġscoop":1359,"amp":1360,"eel":1361,"Ġlittle":1362,"ict":1363,"ni":1364,"Beige":1365,"Ġpre":1366,"Ġthem":1367,"Ġfoot":1368,"Ġleopard":1369,"Ġtap":1370,"Ġprod":1371,"ative":1372,"Ġknee":1373,"Ġfemin":1374,"Ġform":1375,"Ġfinished":1376,"Ġsome":1377,"ew":1378,"stract":1379,"ĠCo":1380,"elf":1381,"lish":1382,"nge":1383,"Ġswim":1384,"Ġwork":1385,"epend":1386,"Ġsuit":1387,"Ġbet":1388,"ĠImported":1389,"Ġabstract":1390,"ĠIT":1391,"Ġmost":1392,"onal":1393,"Ġbold":1394,"Ġmot":1395,"Ġwater":1396,"bon":1397,"Ġfav":1398,"rystal":1399,"ĠMc":1400,"ring":1401,"Ġabout":1402,"Ġturn":1403,"Ġsize":1404,"clu":1405,"air":1406,"Ġti":1407,"Ġvent":1408,"ĠIts":1409,"ĠLaur":1410,"Ġtee":1411,"oose":1412,"of":1413,"li":1414,"Ġedges":1415,"Ġyoull":1416,"ester":1417,"Ġgl":1418,"ady":1419,"Ã§":1420,"rad":1421,"ame":1422,"Ġfastenings":1423,"Ġmulticoloured":1424,"Ġstud":1425,"Ġmaxi":1426,"lin":1427,"Ġway":1428,"Ġgood":1429,"Ġcrystal":1430,"Ġge":1431,"ates":1432,"ĠAn":1433,"Ġsatin":1434,"ley":1435,"rman":1436,"orm":1437,"ility":1438,"Ġlabel":1439,"Ġtapered":1440,"ix":1441,"Ġpower":1442,"Ġembellished":1443,"Ġsingle":1444,"Ġplu":1445,"Ġnever":1446,"Ġhard":1447,"ody":1448,"Ġbeige":1449,"Ġhalter":1450,"Ġembellishments":1451,"Ġyellow":1452,"Ġdot":1453,"ĠMara":1454,"Ġknow":1455,"Ġsuper":1456,"Ġslits":1457,"etty":1458,"Ġindepend":1459,"Ġindependent":1460,"ĠDes":1461,"ĠGab":1462,"ky":1463,"Ġdef":1464,"SG":1465,"ĠGar":1466,"Ġbody":1467,"ressed":1468,"Ġyoure":1469,"lover":1470,"oss":1471,"Ġextra":1472,"Ġdecor":1473,"nit":1474,"Ġadjustable":1475,"Ġ19":1476,"Ġic":1477,"atile":1478,"abel":1479,"Ġplay":1480,"neak":1481,"aint":1482,"Ġyours":1483,"emb":1484,"Ġdel":1485,"Ġtiered":1486,"Ġher":1487,"WH":1488,"ĠFr":1489,"Ġpolka":1490,"Ġrating":1491,"Ġbuck":1492,"Ġworld":1493,"Ġmakes":1494,"ĠPol":1495,"ĠDesigned":1496,"Ġbeen":1497,"Ġelev":1498,"hetic":1499,"Ġsneak":1500,"ĠGarÃ§":1501,"let":1502,"Ġwant":1503,"Ġult":1504,"Grey":1505,"Ġlooks":1506,"Ġboot":1507,"mpor":1508,"SGM":1509,"ĠGarÃ§ons":1510,"Ġblock":1511,"Ġstructured":1512,"ometric":1513,"ander":1514,"reat":1515,"cent":1516,"arf":1517,"Ġsleek":1518,"Ġref":1519,"Ġpad":1520,"ough":1521,"WHAT":1522,"ĠComme":1523,"intage":1524,"Ġinter":1525,"ips":1526,"Ġins":1527,"utton":1528,"yed":1529,"uck":1530,"ware":1531,"ĠNo":1532,"Ġjo":1533,"Ġunder":1534,"ence":1535,"ĠMa":1536,"hich":1537,"ively":1538,"KS":1539,"ique":1540,"Ġbag":1541,"ilipp":1542,"Ġsummer":1543,"Ġvib":1544,"Ġtank":1545,"Ġfeminine":1546,"olce":1547,"waisted":1548,"Ġfur":1549,"ĠSA":1550,"Ġgeometric":1551,"orite":1552,"St":1553,"Ġinst":1554,"tering":1555,"Ġdays":1556,"lim":1557,"ange":1558,"Ġscallo":1559,"Ġpieces":1560,"Ġstylish":1561,"ures":1562,"ĠMi":1563,"Ġuse":1564,"Ġflow":1565,"Ġpanelled":1566,"Ġproduct":1567,"eas":1568,"Ġoz":1569,"ĠMSGM":1570,"oven":1571,"ĠGabb":1572,"Ġboxy":1573,"Ġmotif":1574,"Ġbuttoned":1575,"irl":1576,"Ġsure":1577,"ane":1578,"alf":1579,"ross":1580,"Ġmaterials":1581,"Ġcu":1582,"ass":1583,"ER":1584,"dash":1585,"ĠAT":1586,"alent":1587,"mdash":1588,"Ġcomb":1589,"reet":1590,"Ġscalloped":1591,"SA":1592,"Ġdet":1593,"ats":1594,"Ġ20":1595,"alk":1596,"Ġbeaut":1597,"Ġtoo":1598,"here":1599,"Ġtwist":1600,"Ġsmooth":1601,"struct":1602,"uch":1603,"Ġslight":1604,"Ġank":1605,"cci":1606,"Ġswimsuit":1607,"ĠThese":1608,"nds":1609,"Ġversatile":1610,"ple":1611,"Ġsub":1612,"Green":1613,"Ġsand":1614,"ork":1615,"Ġsuede":1616,"Ġmin":1617,"ĠBe":1618,"Ġwhich":1619,"Ġfaux":1620,"ersey":1621,"ves":1622,"Ġheel":1623,"ased":1624,"dition":1625,"ĠIsabel":1626,"Ġhook":1627,"Ġsun":1628,"Ġhel":1629,"ĠGabbana":1630,"Ġman":1631,"hole":1632,"Ġtimeless":1633,"the":1634,"friend":1635,"ĠPh":1636,"Ġsoph":1637,"Ġcarbon":1638,"ĠMarant":1639,"Ġsophist":1640,"orte":1641,"lay":1642,"Ġbuckle":1643,"esthetic":1644,"ma":1645,"ĠSAKS":1646,"Ġiconic":1647,"ild":1648,"ĠHeight":1649,"Ġslip":1650,"oc":1651,"Ġaesthetic":1652,"mber":1653,"ONLY":1654,"uss":1655,"ĠRe":1656,"Ġupd":1657,"ace":1658,"ĠSu":1659,"Ġstitching":1660,"achine":1661,"ĠForte":1662,"ude":1663,"Ġpos":1664,"ife":1665,"umps":1666,"ĠMon":1667,"easure":1668,"eath":1669,"der":1670,"Ġadds":1671,"Ġtexture":1672,"knit":1673,"ting":1674,"structed":1675,"Ġcam":1676,"Ġright":1677,"ison":1678,"aro":1679,"oft":1680,"quard":1681,"Ġspecial":1682,"Ġpretty":1683,"Ġdistressed":1684,"ucci":1685,"ĠDolce":1686,"Ġposit":1687,"Brown":1688,"ĠĠĠĠĠĠĠĠĠĠĠĠĠĠĠĠĠĠĠĠĠĠĠĠĠĠĠĠĠĠĠĠĠĠĠĠĠĠĠĠĊ":1689,"ĠNan":1690,"enzo":1691,"cer":1692,"alentino":1693,"ĠFran":1694,"Ġart":1695,"20":1696,"Dark":1697,"low":1698,"Ġfeature":1699,"ok":1700,"Ġpositively":1701,"Ġwom":1702,"Ġfresh":1703,"ello":1704,"Ġready":1705,"oni":1706,"ĠTo":1707,"ways":1708,"Ġ8":1709,"ĠWh":1710,"Ġ6":1711,"Ġgathering":1712,"Ġhardware":1713,"Ġrem":1714,"Ġonly":1715,"Ġthan":1716,"Ġwhile":1717,"Ġcross":1718,"vis":1719,"atch":1720,"ock":1721,"Ġwas":1722,"Ġjersey":1723,"Ġsimp":1724,"Ġeach":1725,"Ġheart":1726,"iter":1727,"Ġstreet":1728,"inko":1729,"Ġchic":1730,"Ġ7":1731,"ĠDe":1732,"Ġtech":1733,"oulder":1734,"Ġhemline":1735,"Ġankle":1736,"Ġslightly":1737,"ĠÃ":1738,"ĠPlease":1739,"ors":1740,"Ġscarf":1741,"edium":1742,"Ġcap":1743,"aking":1744,"Ġexper":1745,"Ġfootprint":1746,"eal":1747,"Ġcold":1748,"lable":1749,"ĠTw":1750,"Ġstar":1751,"Ġstap":1752,"Ġfavorite":1753,"Ġmer":1754,"Ġbetter":1755,"lic":1756,"Ġpadded":1757,"Ġfrayed":1758,"get":1759,"Ġinstant":1760,"Ġsnap":1761,"Ġ0":1762,"osch":1763,"vet":1764,"Ġchoose":1765,"Ġeven":1766,"ire":1767,"Ġnatur":1768,"ner":1769,"pt":1770,"ilk":1771,"no":1772,"heart":1773,"sia":1774,"Ġhere":1775,"Ġalso":1776,"Ġ9":1777,"Ġtul":1778,"Ġdark":1779,"ĠHand":1780,"umpsuit":1781,"ning":1782,"Ġtrack":1783,"Ġsweetheart":1784,"idth":1785,"shoulder":1786,"Ġyet":1787,"ailable":1788,"lined":1789,"vailable":1790,"its":1791,"ĠPro":1792,"ĠRE":1793,"Ġtone":1794,"Ġcra":1795,"Ġvintage":1796,"eed":1797,"ilted":1798,"app":1799,"eric":1800,"bra":1801,"elli":1802,"ives":1803,"Ġjumpsuit":1804,"ced":1805,"lect":1806,"style":1807,"lasses":1808,"Ġthread":1809,"oschino":1810,"RED":1811,"Ġjac":1812,"Ġrich":1813,"Ġjacquard":1814,"ug":1815,"atement":1816,"Ġdur":1817,"ĠOr":1818,"Ġif":1819,"Ġaround":1820,"Ġbas":1821,"Ġbeach":1822,"odel":1823,"Sh":1824,"arr":1825,"ĠPinko":1826,"Ġbead":1827,"ailed":1828,"Ġgathered":1829,"Ġvis":1830,"oe":1831,"ott":1832,"Ġflattering":1833,"Ġfringed":1834,"han":1835,"almain":1836,"aked":1837,"Ġcozy":1838,"Ġluxurious":1839,"Ġatt":1840,"ĠCon":1841,"ness":1842,"Ġmesh":1843,"ĠTr":1844,"tro":1845,"ĠMoschino":1846,"iece":1847,"fter":1848,"ellished":1849,"EN":1850,"Ġnow":1851,"Ġcomes":1852,"ines":1853,"Ġboat":1854,"ĠMaison":1855,"ĠWidth":1856,"Wh":1857,"Ġfeather":1858,"ĠSaint":1859,"Ġmay":1860,"lat":1861,"res":1862,"oy":1863,"Ġadded":1864,"ossed":1865,"Ġtulle":1866,"ĠLaurent":1867,"ortless":1868,"Ġbright":1869,"In":1870,"cr":1871,"ĠMachine":1872,"iana":1873,"uce":1874,"ustom":1875,"Ġfind":1876,"Ġproducts":1877,"ilit":1878,"ĠCotton":1879,"ĠBrun":1880,"ham":1881,"Ġluxury":1882,"Ġprov":1883,"ĠLe":1884,"Ġturtle":1885,"com":1886,"ĠLeather":1887,"ĠCuc":1888,"Ġsophisticated":1889,"inelli":1890,"Ġwoven":1891,"olor":1892,"ĠCucinelli":1893,"ĠSch":1894,"Ġwithout":1895,"vory":1896,"friendly":1897,"Ġstatement":1898,"ĠBrunello":1899,"Ġpolo":1900,"cyc":1901,"Ġens":1902,"ount":1903,"Ġsneakers":1904,"Ġgreat":1905,"Ġstyling":1906,"iela":1907,"Ġgown":1908,"ĠSm":1909,"lam":1910,"Ġboast":1911,"Ġsmall":1912,"Ġexp":1913,"Ġeveryday":1914,"Ġsay":1915,"eth":1916,"issoni":1917,"olid":1918,"Ġforces":1919,"Ġorange":1920,"clud":1921,"Ġweather":1922,"Ġdont":1923,"icate":1924,"Ġhead":1925,"iful":1926,"QU":1927,"Ġquilted":1928,"Ġsupply":1929,"nglasses":1930,"ĠFor":1931,"Ġorgan":1932,"urple":1933,"Ġres":1934,"Ġpop":1935,"Ġuses":1936,"Ġcriter":1937,"Ġcriteria":1938,"pe":1939,"ĠLong":1940,"Ġpeaked":1941,"Ġjoined":1942,"You":1943,"block":1944,"mil":1945,"aris":1946,"Ġcustom":1947,"ulti":1948,"Ġinterior":1949,"Yellow":1950,"nel":1951,"embellished":1952,"Our":1953,"Ġtied":1954,"Ivory":1955,"rist":1956,"ĠEtro":1957,"Ġsupport":1958,"Ġalways":1959,"Ġbro":1960,"Ġsunglasses":1961,"Ġcovered":1962,"Ġsubtle":1963,"che":1964,"ĠWear":1965,"Ġnote":1966,"ert":1967,"Ġpull":1968,"Ġvel":1969,"body":1970,"ram":1971,"Ġnight":1972,"ĠFer":1973,"Ġrain":1974,"Ġboth":1975,"Ġhooded":1976,"Ġpres":1977,"Ġlamb":1978,"cycled":1979,"yl":1980,"ince":1981,"iped":1982,"Ġdiff":1983,"ella":1984,"An":1985,"isley":1986,"ĠFilipp":1987,"Ġunique":1988,"rant":1989,"Ġluxe":1990,"vel":1991,"Ġedge":1992,"isp":1993,"Ġpoly":1994,"apan":1995,"cler":1996,"ub":1997,"ĠAlexander":1998,"aw":1999,"ĠFit":2000,"ĠBalmain":2001,"cotton":2002,"Ġmix":2003,"Ġacross":2004,"ĠMarg":2005,"Ġnavy":2006,"Ġpolished":2007,"lum":2008,"Ġtrue":2009,"Ġcomfy":2010,"Ġfir":2011,"Ġbeautiful":2012,"Ġrom":2013,"Ġ'":2014,"dye":2015,"ĠBur":2016,"icro":2017,"Ġret":2018,"ĠStr":2019,"Ġeffortless":2020,"Ġultra":2021,"Ġbec":2022,"anks":2023,"Ġlife":2024,"Ġdesigns":2025,"Ġline":2026,"ARED":2027,"Ġplaid":2028,"sleeved":2029,"Ġoutfit":2030,"SQU":2031,"work":2032,"Ġglit":2033,"SQUARED":2034,"Ġtrench":2035,"Ġrag":2036,"Ġpen":2037,"Ġdetailed":2038,"rew":2039,"Ġoffers":2040,"Ġhalf":2041,"ĠPoly":2042,"ality":2043,"Ġlegg":2044,"ovable":2045,"Ġnatural":2046,"ĠOur":2047,"Ġpaisley":2048,"Ġelegance":2049,"Ġrecycled":2050,"visible":2051,"ief":2052,"mporary":2053,"piece":2054,"ĠMissoni":2055,"Ġrose":2056,"ĠAm":2057,"Ġeco":2058,"ĠFab":2059,"Ġthreading":2060,"Ġstyles":2061,"Ġaccent":2062,"Ġbasic":2063,"Ġarm":2064,"ause":2065,"ĠDSQUARED":2066,"emporary":2067,"igin":2068,"Ġadorn":2069,"Ġweek":2070,"Ġhelp":2071,"RA":2072,"We":2073,"Ġglam":2074,"Ġnext":2075,"light":2076,"Ġimpact":2077,"Ġsporty":2078,"Ġminimal":2079,"Ġcraft":2080,"tes":2081,").":2082,"Ġreduce":2083,"ney":2084,"Ġprints":2085,"olog":2086,"tr":2087,"quÃ©":2088,"Ġdelicate":2089,"ussy":2090,"ĠOw":2091,"Ġperfectly":2092,"Ġdry":2093,"ula":2094,"ony":2095,"Ġvelvet":2096,"Ġinspired":2097,"ĠMargiela":2098,"ĠOff":2099,"Ġcreate":2100,"ĠOwens":2101,"rmani":2102,"Ġafter":2103,"Ġspread":2104,"ES":2105,"oh":2106,"Ġleggings":2107,"gle":2108,"Ġfound":2109,"Ġtonal":2110,"Ġtweed":2111,"Ġcream":2112,"Ġthroughout":2113,"ule":2114,"Ġtoe":2115,"Ġvest":2116,"Ġador":2117,"Ġsheen":2118,"arl":2119,"ĠPa":2120,"iking":2121,"Ġstitched":2122,"ĠMcC":2123,"ĠRo":2124,"âĢĶ":2125,"Ġroll":2126,"Ġgu":2127,"unt":2128,"Ġpussy":2129,"Ġbreath":2130,"Ġremovable":2131,"tte":2132,"ĠAvailable":2133,"Ġsandal":2134,"Ġdiffer":2135,"ĠSize":2136,"Ġhouse":2137,"Ġappli":2138,"ĠArmani":2139,"ĠButton":2140,"Ġplayful":2141,"ina":2142,"Ġstrapless":2143,"Ġwho":2144,"Ġyourself":2145,"IN":2146,"eld":2147,"Ġgot":2148,"gra":2149,"Ġcase":2150,"easurements":2151,"ones":2152,"ĠJapan":2153,"Ġglitter":2154,"Ġshowc":2155,"ĠMoncler":2156,"oph":2157,"Ġmuch":2158,"Ġembossed":2159,"Ġcharm":2160,"Ġdecorative":2161,"Ġel":2162,"ĠRick":2163,"Ġroom":2164,"net":2165,"pro":2166,"very":2167,"ctive":2168,"Ġpin":2169,"Ġcontemporary":2170,"Ġalong":2171,"Ġrun":2172,"ĠErman":2173,"Ġfirst":2174,"ĠErmanno":2175,"red":2176,"Ġthose":2177,"ions":2178,"epth":2179,"ictor":2180,"cil":2181,"we":2182,"Ġshad":2183,"Ġfram":2184,"aule":2185,"</":2186,"ship":2187,"erfect":2188,"Ġlapel":2189,"Ġbottoms":2190,"Ġwere":2191,"ases":2192,"Ġworn":2193,"Ġfinishing":2194,"Ġmicro":2195,"Ġmerino":2196,"Ġraw":2197,"na":2198,"Ġflu":2199,"earl":2200,"ĠHigh":2201,"ocket":2202,"ĠBra":2203,"Ġfaded":2204,"Ġzipper":2205,"ĠVers":2206,"silk":2207,"ĠST":2208,"ĠStra":2209,"Ġcant":2210,"Ġformula":2211,"ditional":2212,"Ġsimple":2213,"Ġthing":2214,"skin":2215,"Ġcin":2216,"Ġconf":2217,"ye":2218,"Ġsiz":2219,"ĠÃī":2220,"Ġmeet":2221,"'re":2222,"Ġput":2223,"pper":2224,"Ġlayer":2225,"toile":2226,"Ġinclud":2227,"ĠAc":2228,"Ġkeyhole":2229,"Ġperfor":2230,"ĠÃītoile":2231,"Valentino":2232,"range":2233,"Ġaccents":2234,"ĠUn":2235,"arn":2236,"Ġcrafts":2237,"ĠDry":2238,"berry":2239,"Ġrefined":2240,"ĠLy":2241,"ĠDrop":2242,"immer":2243,"gia":2244,"Ġpure":2245,"Ġgives":2246,"AR":2247,"Ġagain":2248,"side":2249,"Ġser":2250,"inter":2251,"ĠappliquÃ©":2252,"rend":2253,"amond":2254,"Ġhalterneck":2255,"atic":2256,"ĠPr":2257,"ĠVictor":2258,"ĠRED":2259,"oice":2260,"Ġmatching":2261,"Ġcomple":2262,"Made":2263,"bow":2264,"free":2265,"Ġthanks":2266,"Ġstanding":2267,"land":2268,"Ġbranded":2269,"enchy":2270,"ivenchy":2271,"alv":2272,"Ġthink":2273,"Ġgra":2274,"Ġmon":2275,"ĠDi":2276,"Ġother":2277,"Off":2278,"ĠLove":2279,"antic":2280,"ĠStraight":2281,"21":2282,"Ġlip":2283,"Ġang":2284,"ention":2285,"Ġpencil":2286,"ĠREDValentino":2287,"Ġinf":2288,"ANN":2289,"Ġprote":2290,"ations":2291,"Ġboasts":2292,"EC":2293,"go":2294,"ient":2295,"Ġdesigner":2296,"utral":2297,"ĠYour":2298,"Ġparty":2299,"gy":2300,"Ġglo":2301,"Ġgirl":2302,"ĠDouble":2303,"Re":2304,"iness":2305,"limate":2306,"calf":2307,"Ġsur":2308,"Ġinvisible":2309,"ĠDenim":2310,"Ġfabrics":2311,"inc":2312,"Ġpul":2313,"Ġlined":2314,"Ġbrush":2315,"ĠFrench":2316,"Ġwoman":2317,"mium":2318,"Ġvibrant":2319,"Ġmock":2320,"Ġorganic":2321,"ĠMcQ":2322,"down":2323,"ondon":2324,"Ġopt":2325,"Ġsom":2326,"ily":2327,"ĠClassic":2328,"unky":2329,"Ġoffice":2330,"ward":2331,"Ġstay":2332,"ĠDepth":2333,"cut":2334,"Ġut":2335,"Ġbomber":2336,"Ad":2337,"Sp":2338,"lus":2339,"ANNI":2340,"Ġchoice":2341,"Ġknot":2342,"Ġsec":2343,"illow":2344,"Ġmove":2345,"Ġenough":2346,"ĠLondon":2347,"ĠFabiana":2348,"Ġframes":2349,"'ll":2350,"Co":2351,"chi":2352,"Ġyear":2353,"Ġide":2354,"Orange":2355,"ited":2356,"ĠGANNI":2357,"ger":2358,"Ġsides":2359,"Ġspark":2360,"ĠFilippi":2361,"sc":2362,"Ġwalk":2363,"Ġtrian":2364,"Ġstaple":2365,"Ġstone":2366,"ĠZip":2367,"immed":2368,"br":2369,"Ġve":2370,"ining":2371,"Ġcomm":2372,"Ch":2373,"ĠEl":2374,"Ġbreathable":2375,"fer":2376,"Ġtechn":2377,"ĠMeasurements":2378,"Ġlooking":2379,"Ġcome":2380,"ogan":2381,"Ġmetal":2382,"Ġaccess":2383,"Ġconfid":2384,"ised":2385,"Ġthings":2386,"Ġfrill":2387,"Ġbit":2388,"ĠAr":2389,"manship":2390,"ĠEmil":2391,"ppy":2392,"ĠBa":2393,"ĠBut":2394,"etti":2395,"ĠSS":2396,"Ġsmart":2397,"Cream":2398,"If":2399,"ĠVictoria":2400,"Ġpep":2401,"Ġsteel":2402,"ĠLor":2403,"Ġcraftsmanship":2404,"zz":2405,"fla":2406,"ĠPucci":2407,"Ġsilhouettes":2408,"Ġmoist":2409,"ww":2410,"Ġwould":2411,"Ġallover":2412,"ĠNanny":2413,"ĠLygia":2414,"ael":2415,"ĠJust":2416,"ĠUSA":2417,"ĠAlber":2418,"OL":2419,"Ġhow":2420,"Ġdiamond":2421,"ylon":2422,"ues":2423,"yn":2424,"ĠChrist":2425,"irc":2426,"ĠJa":2427,"ichael":2428,"ĠFrom":2429,"Ġfits":2430,"aby":2431,"LAN":2432,"Ġpuffer":2433,"ost":2434,"Ġdes":2435,"Ġdoesnt":2436,"ĠLI":2437,"Ġtrans":2438,"ĠMarni":2439,"Ġraglan":2440,"OR":2441,"Ġph":2442,"ense":2443,"Ġbeing":2444,"ĠGivenchy":2445,"iving":2446,"front":2447,"Ġexpert":2448,"Ġep":2449,"Ġromantic":2450,"ĠMichael":2451,"ĠWash":2452,"Ġflaunt":2453,"Ġeverything":2454,"sk":2455,"Ġx":2456,"Ġmind":2457,"Ġrh":2458,"Ġ18":2459,"Ġpeplum":2460,"sy":2461,"Âº":2462,"Ġhis":2463,"ĠBlack":2464,"Ġcolors":2465,"Ġcla":2466,"oom":2467,"ron":2468,"Ġplaque":2469,"mporio":2470,"Ġhems":2471,"ĠComp":2472,"iger":2473,"ĠEmporio":2474,"ned":2475,"illed":2476,"Ġelevated":2477,"hem":2478,"Ġbring":2479,"Ġcinched":2480,"ĠSer":2481,"ĠCare":2482,"nov":2483,"Ġstain":2484,"imate":2485,"Ġstriking":2486,"Ġchunky":2487,"Ġbeaded":2488,"ĠCut":2489,"ully":2490,"Ġneutral":2491,"Ġstitch":2492,"like":2493,"arp":2494,"ically":2495,"ĠSo":2496,"otic":2497,"loÃ©":2498,"ething":2499,"ately":2500,"Ġcenter":2501,"ray":2502,"ĠVersace":2503,"ĠIS":2504,"Ġthats":2505,"Ġseen":2506,"rod":2507,"ĠSe":2508,"outure":2509,"ĠNot":2510,"ĠEmilio":2511,"!\"":2512,"Set":2513,"ĠX":2514,"ta":2515,"artney":2516,"ĠMcCartney":2517,"Ġtriangle":2518,"Ġes":2519,"Ġjean":2520,"ĠFrance":2521,"iesel":2522,"gre":2523,"iron":2524,"proof":2525,"Ġsole":2526,"etta":2527,"Ġwr":2528,"ready":2529,"Ġdream":2530,"Ġdecorated":2531,"ĠMedium":2532,"ĠKarl":2533,"Ġhip":2534,"Ġlens":2535,"ĠNÂº":2536,"ĠDO":2537,"Ġtrims":2538,"Ġren":2539,"ĠBy":2540,"ĠChloÃ©":2541,"Ġensure":2542,"Classic":2543,"hak":2544,"ĠWool":2545,"ÂłĊ":2546,"vino":2547,"ĠScer":2548,"Ġslogan":2549,"ĠStella":2550,"ĠScervino":2551,"Ġmill":2552,"Ġrec":2553,"Ġinnov":2554,"Ġappeal":2555,"ĠConstructed":2556,"for":2557,"Ġwhy":2558,"Ġessentials":2559,"Ġshades":2560,"med":2561,"Ġstill":2562,"Ġrevers":2563,"Ġaddition":2564,"Ġtraces":2565,"white":2566,"Ġhy":2567,"Ġtailoring":2568,"Soft":2569,"inest":2570,"ĠâĢ":2571,"ari":2572,"ĠGold":2573,"de":2574,"lit":2575,"Ġou":2576,"Ġlips":2577,"ilver":2578,"ĠDiesel":2579,"CE":2580,"Ġshap":2581,"ima":2582,"Ġultimate":2583,"haki":2584,"button":2585,"liv":2586,"Ġpolyester":2587,"Ġretro":2588,"Ġrhinest":2589,"ex":2590,"tter":2591,"structions":2592,"Ġversion":2593,"centre":2594,"ĠTwin":2595,"Ġpullover":2596,"ME":2597,"ora":2598,"ĠMan":2599,"aran":2600,"att":2601,"hether":2602,"lace":2603,"ĠThey":2604,"ology":2605,"Ġshine":2606,"ipe":2607,"ĠKenzo":2608,"ets":2609,"coat":2610,"Ġmany":2611,"ĠPolyester":2612,"Ġdistin":2613,"Ġsomething":2614,"ĠMo":2615,"heres":2616,"Ġspring":2617,"night":2618,"ĠParis":2619,"ĠShoe":2620,"istant":2621,"cose":2622,"Ġtraditional":2623,"Ġtass":2624,"Ġfunction":2625,"Ġweekend":2626,"Ġelastic":2627,"Ġseams":2628,"Ġmens":2629,"Ġlet":2630,"by":2631,"Ġbrief":2632,"ĠInstructions":2633,"Ġrhinestone":2634,"form":2635,"use":2636,"Ġlo":2637,"Ġlend":2638,"ushka":2639,"enza":2640,"Ġpresent":2641,"ĠJapanese":2642,"wash":2643,"Ġcould":2644,"ĠTe":2645,"ctu":2646,"ĠAll":2647,"Ġplush":2648,"Ġbodysuit":2649,"Ġupdate":2650,"ĠModel":2651,"Ġcollarless":2652,"Ġlends":2653,"Ġgoing":2654,"ooking":2655,"aid":2656,"Ġem":2657,"ĠDo":2658,"colour":2659,"Ġhue":2660,"Ġeyes":2661,"Ġcreates":2662,"Ġboots":2663,"ouler":2664,"Ġjew":2665,"ĠSchouler":2666,"stit":2667,"Ġold":2668,"nging":2669,"ĠPair":2670,"ĠAlice":2671,"Ġfringe":2672,"Ġgen":2673,"ĠNanushka":2674,"Ġnon":2675,"ĠJO":2676,"ĠLIU":2677,"'t":2678,"Ġwont":2679,"Ġsho":2680,"imag":2681,"Ġcrisp":2682,"ĠFerr":2683,"AC":2684,"ena":2685,"Ġfriend":2686,"ĠHeel":2687,"ĠTrue":2688,"linen":2689,"Ġthere":2690,"ĠAsp":2691,"LAND":2692,"Ġcost":2693,"Ġpatchwork":2694,"Ġ50":2695,"made":2696,"esi":2697,"ator":2698,"Ġsee":2699,"ability":2700,"ĠFerretti":2701,"10":2702,"erry":2703,"Ġpant":2704,"Ġdr":2705,"Ġ12":2706,"Ġupdated":2707,"Ġminimalist":2708,"ĠAlberta":2709,"uf":2710,"Ġcow":2711,"Ġever":2712,"Ġevening":2713,"ueen":2714,"Ġlambskin":2715,"Ġadorns":2716,"ween":2717,"Su":2718,"where":2719,"Ġaway":2720,"Ġbor":2721,"Ġmight":2722,"Ġface":2723,"asc":2724,"ilos":2725,"Ġhair":2726,"Ġemp":2727,"Ġknown":2728,"RAME":2729,"OM":2730,"ya":2731,"Ġair":2732,"ĠKa":2733,"Ġcriss":2734,"ccas":2735,"ĠLauren":2736,"ĠAspesi":2737,"ila":2738,"tu":2739,"ĠEx":2740,"ople":2741,"mann":2742,"Ġstainless":2743,"When":2744,"ele":2745,"Ġhold":2746,"ches":2747,"Ġcontin":2748,"soft":2749,"ĠMiu":2750,"oliday":2751,"ophy":2752,"ilosophy":2753,"AL":2754,"eg":2755,"Ġbase":2756,"Ġpiped":2757,"igo":2758,"Ġsharp":2759,"ĠPlein":2760,"Ġdefin":2761,"alph":2762,"lastic":2763,"Ġenhan":2764,"Ġcoverage":2765,"Ġinstantly":2766,"Ġsens":2767,"ĠCan":2768,"ada":2769,"Ġappro":2770,"Ġfeeling":2771,"eeps":2772,"trimmed":2773,"Ġwatch":2774,"arsia":2775,"Ġsup":2776,"ĠRun":2777,"ĠHer":2778,"ĠJoh":2779,"Ġpatterned":2780,"Ġorigin":2781,"Ġusing":2782,"ECT":2783,"Ġshowing":2784,"Designed":2785,"eff":2786,"ixed":2787,"Ġfitting":2788,"Ġnylon":2789,"ots":2790,"ĠSTY":2791,"ĠDoublej":2792,"With":2793,"ca":2794,"ĠRalph":2795,"ĠSTYLAND":2796,"ebra":2797,"Ġsaf":2798,"Ġlim":2799,"rag":2800,"elle":2801,"elling":2802,"umin":2803,"These":2804,"clus":2805,"ĠSee":2806,"Ġmatte":2807,"Ġpinstr":2808,"cess":2809,"13":2810,"pocket":2811,"Ġfo":2812,"Ġpack":2813,"eve":2814,"Ġhor":2815,"Ġcroche":2816,"ilitary":2817,"bs":2818,"dr":2819,"off":2820,"Ġpurple":2821,"Ġthen":2822,"Ġbod":2823,"Ġbree":2824,"lash":2825,"Ġthrow":2826,"ĠFRAME":2827,"Ġlast":2828,"Ġpremium":2829,"rade":2830,"ios":2831,"Ġam":2832,"Ġpun":2833,"eng":2834,"ĠWang":2835,"Ġdurable":2836,"Ġpark":2837,"Ġrep":2838,"Ġchecked":2839,"Ġcall":2840,"ipped":2841,"vent":2842,"Model":2843,"ĠPlus":2844,"Ġnothing":2845,"Ġpict":2846,"Ġbrace":2847,"Ġpale":2848,"Ġbetween":2849,"Ġvegan":2850,"tail":2851,"seam":2852,"IR":2853,"ding":2854,"ingham":2855,"Ġmean":2856,"Ġkeeps":2857,"Ġplain":2858,"ĠLA":2859,"Ġpeople":2860,"mous":2861,"ins":2862,"Ġbillow":2863,"Ġstep":2864,"Ġcrepe":2865,"arin":2866,"olt":2867,"lush":2868,"rich":2869,"Ġ14":2870,"Gold":2871,"Ġbust":2872,"Ġwaisted":2873,"Ġbrings":2874,"Ġprovides":2875,"Ġouter":2876,"ute":2877,"Ġtakes":2878,"Ġcare":2879,"ĠPolo":2880,"Ġsneaker":2881,"ĠPhilipp":2882,"Ġmaking":2883,"ĠVe":2884,"Ġbiker":2885,"CH":2886,"terior":2887,"ĠHern":2888,"ounded":2889,"oseph":2890,"Ġclasp":2891,"lated":2892,"Ġfall":2893,"\"\",":2894,"ivers":2895,"Ġtheyve":2896,"livia":2897,"arine":2898,"Ġless":2899,"ĠBo":2900,"Ġplanet":2901,"Ġbaby":2902,"ĠDress":2903,"tical":2904,"uring":2905,"igure":2906,"Ġend":2907,"Ġintarsia":2908,"ĠBeck":2909,"awl":2910,"ĠMcQueen":2911,"cing":2912,"Ġbar":2913,"evel":2914,"Ġpleat":2915,"\"\"\"":2916,"iant":2917,"Ġent":2918,"stain":2919,"Ġthough":2920,"orts":2921,"cept":2922,"andre":2923,"Ġfunnel":2924,"Ġsports":2925,"Ġturtleneck":2926,"atching":2927,"ĠĠĠĠĠĠĠĠĠĠĠĠĠĠĠĠĠĠĠĠĠĠĠĠĠĠĠĠĠĠĠĠĠĠĠĠĠĠĠĠĠĠĠĠĠĠĠĠĠĠĠĠĠĠĠĠĠĠĠĠĠĠĠĠĊ":2928,"aract":2929,"Ġwarmth":2930,"Ġcable":2931,"ĠPaule":2932,"ĠPerfect":2933,"Ġzebra":2934,"ques":2935,"Ġtwill":2936,"Ġused":2937,"thle":2938,"ssential":2939,"fore":2940,"ven":2941,"Ġsustain":2942,"Str":2943,"Ġper":2944,"ĠValentino":2945,"Ġant":2946,"andarin":2947,"Ġthigh":2948,"ĠGan":2949,"Ġcute":2950,"Ġcrossbody":2951,"ri":2952,"Ġmeasure":2953,"aper":2954,"Ġexotic":2955,"Ġlines":2956,"Ġstaples":2957,"ĠBurberry":2958,"Ġcomplete":2959,"Ġbracelet":2960,"stick":2961,"ulticolor":2962,"Ġrub":2963,"Ġspecially":2964,"Ġtechnology":2965,"Ġbodice":2966,"ĠFa":2967,"Ġjog":2968,"ĠNew":2969,"ĠJil":2970,"Ġflowers":2971,"uchsia":2972,"ufact":2973,"ination":2974,"ilt":2975,"ĠMM":2976,"ĠDont":2977,"ĠJoseph":2978,"Ġwild":2979,"Ġoccas":2980,"ably":2981,"Ġinnovative":2982,"gg":2983,"otan":2984,"ĠStud":2985,"Ġ196":2986,"Ġtassel":2987,"ĠHerno":2988,"Ġholiday":2989,"ĠUl":2990,"ĠFront":2991,"URE":2992,"Ġring":2993,"ĠSander":2994,"mance":2995,"Ġbecome":2996,"ĠPaul":2997,"iting":2998,"Ġmanufact":2999,"ĠVegan":3000,"oise":3001,"isk":3002,"Ġgingham":3003,"isex":3004,"osed":3005,"itage":3006,"ĠSim":3007,"Ġallow":3008,"ĠNow":3009,"effect":3010,"uminous":3011,"ĠBeckham":3012,"Br":3013,"ze":3014,"ili":3015,"Ġshawl":3016,"Ġvibe":3017,"99":3018,"ĠPlay":3019,"Ġfavour":3020,"Ġjewel":3021,"lip":3022,"top":3023,"iny":3024,"ros":3025,"Ġcrewneck":3026,"fully":3027,"aracter":3028,"Silver":3029,"ĠMake":3030,"Ġideal":3031,"Ġav":3032,"stooth":3033,"Ġmult":3034,"ouchy":3035,"Ġlayering":3036,"Ġfour":3037,"ĠCav":3038,"ĠWell":3039,"ection":3040,"ional":3041,"ĠBec":3042,"Ġsmock":3043,"Ġunisex":3044,"ĠTwo":3045,"lee":3046,"Ġwhere":3047,"Ġcour":3048,"Ġvol":3049,"Ġcutout":3050,"Ġ<":3051,"Ġsince":3052,"Ġbig":3053,"Ġ11":3054,"oundstooth":3055,"Âł\"":3056,"Ġrubber":3057,"Ġprec":3058,"Ġconfident":3059,"atore":3060,"Ġpers":3061,"ĠSac":3062,"Ġeffects":3063,"Ġquick":3064,"ĠAlexandre":3065,"Ġupper":3066,"ĠThree":3067,"Ġcolorblock":3068,"Ġflower":3069,"Ġlat":3070,"Ġmedium":3071,"ided":3072,"resistant":3073,"Ġcommit":3074,"ĠSacai":3075,"Ġther":3076,"Ġlaid":3077,"ĠGo":3078,"Ġanything":3079,"Ġglamour":3080,"Ġlenses":3081,"Al":3082,"Ġdis":3083,"Ġtoget":3084,"ĠPet":3085,"Ġsock":3086,"alli":3087,"ĠProenza":3088,"ĠSmith":3089,"clusive":3090,"Ġtogether":3091,"fort":3092,"grade":3093,"ette":3094,"ĠPre":3095,"ĠLag":3096,"tch":3097,"Ġil":3098,"ĠPes":3099,"PF":3100,"akeskin":3101,"ĠPhilosophy":3102,"ĠLorenzo":3103,"Ġmulti":3104,"iple":3105,"Ġapplic":3106,"afini":3107,"erico":3108,"ĠSerafini":3109,"ĠDOES":3110,"ĠPeserico":3111,"Purple":3112,"aft":3113,"ath":3114,"ĠWhite":3115,"Ġwinter":3116,"Ġmag":3117,"Ġease":3118,"ĠTur":3119,"ours":3120,"Ġreally":3121,"ĠAnt":3122,"Ġinside":3123,"Ġbillowing":3124,"Ġouterwear":3125,"ys":3126,"itely":3127,"Ġpress":3128,"ĠThom":3129,"erfeld":3130,"ĠZimmer":3131,"coloured":3132,"ĠLagerfeld":3133,"ĠClimate":3134,"Ġsame":3135,"ensated":3136,"ĠCompensated":3137,"Ġdistinctive":3138,"Ġfavourite":3139,"Ġhoundstooth":3140,"Ġwhole":3141,"Ġarch":3142,"Ġelevates":3143,"loor":3144,"ĠGet":3145,"Ġmoisture":3146,"washed":3147,"ET":3148,"Sleek":3149,"Ġfol":3150,"Ġhome":3151,"Ġdressing":3152,"ecially":3153,"ĠStudios":3154,"19":3155,"pan":3156,"ism":3157,"ises":3158,"ĠClean":3159,"amel":3160,"Ġener":3161,"Your":3162,"Ġfact":3163,"Ġstrong":3164,"Ġdire":3165,"arts":3166,"ĠStyle":3167,"Ġsnakeskin":3168,"ramatic":3169,"ĠAcne":3170,"roduc":3171,"iqu":3172,"Ġlar":3173,"Ġfib":3174,"aire":3175,"Ġhands":3176,"Ġbeauty":3177,"Qu":3178,"ject":3179,"imes":3180,"Ġsplit":3181,"etting":3182,"For":3183,"Ġpearl":3184,"etate":3185,"arian":3186,"ogn":3187,"con":3188,"Ġbou":3189,"ĠBon":3190,"Ġplease":3191,"Ġcloset":3192,"she":3193,"Ġsy":3194,"Ġsold":3195,"Ġver":3196,"owned":3197,"Ġopening":3198,"Ġcreating":3199,"Ġclu":3200,"Ġbloom":3201,"Ġgraphics":3202,"par":3203,"Ġathle":3204,"Ġmeans":3205,"ĠTake":3206,"Ġkang":3207,"Ġbefore":3208,"Ġprop":3209,"ĠZimmermann":3210,"Ġgets":3211,"ĠAnn":3212,"Ġflaunts":3213,"Ġcrochet":3214,"ength":3215,"blue":3216,"Ġtiger":3217,"ste":3218,"Ġmiss":3219,"quot":3220,"Ġslouchy":3221,"ĠRich":3222,"Ġeveryone":3223,"Ġcolorful":3224,"ĠSuede":3225,"aroo":3226,"ĠUnlined":3227,"Ġtag":3228,"illa":3229,"ĠSimp":3230,"olut":3231,"ĠIro":3232,"Ġtreat":3233,"Ġspir":3234,"Ġcrink":3235,"Ġpowder":3236,"Ġsizing":3237,"Ġkangaroo":3238,"ket":3239,"pr":3240,"isan":3241,"Ġgr":3242,"Ġgame":3243,"Ġlegs":3244,"achable":3245,"Ġquality":3246,"Ġcargo":3247,"Ġplunging":3248,"Ġ70":3249,"Ex":3250,"time":3251,"Ġlett":3252,"ĠTal":3253,"Ġhighlight":3254,"Ġ17":3255,"leece":3256,"Ġlatest":3257,"Its":3258,"Ġfigure":3259,"Ġbrands":3260,"Ġpairs":3261,"),":3262,"Ġfeels":3263,"based":3264,"Ġfold":3265,"Ġwind":3266,"Ġmood":3267,"aving":3268,"Ġesp":3269,"ke":3270,"Ġpract":3271,"oufla":3272,"Ġtote":3273,"Ġmatch":3274,"ĠBear":3275,"itude":3276,"ĠSte":3277,"Ġframe":3278,"Who":3279,"cashmere":3280,"Ġtab":3281,"ories":3282,"Ġtemp":3283,"Ġ24":3284,"Ġimpro":3285,"Ġdetachable":3286,"cross":3287,"ying":3288,"Ġmandarin":3289,"ĠInd":3290,"Ġenv":3291,"Ġrad":3292,"Ġcushion":3293,"ilitarian":3294,"ĠElis":3295,"pect":3296,"sole":3297,"Ġbound":3298,"Ġdramatic":3299,"Ġonce":3300,"Ġboring":3301,"elebr":3302,"Ġname":3303,"umble":3304,"Ġtravel":3305,"ico":3306,"Ġtrimmed":3307,"ernal":3308,"ĠSpring":3309,"OO":3310,"Ġcalf":3311,"ene":3312,"thy":3313,"roidered":3314,"Ġexc":3315,"ĠZad":3316,"ds":3317,"Ġmixed":3318,"loss":3319,"Ġrock":3320,"Ġgoes":3321,"Ġflex":3322,"Ġsequinned":3323,"Ġpolish":3324,"Ġdifferent":3325,"Ġreversible":3326,"ci":3327,"lant":3328,"ĠLo":3329,"ĠVolt":3330,"Inspired":3331,"Ġparka":3332,"Ġjewelry":3333,"ouflage":3334,"Ġinsp":3335,"Ġwashed":3336,"Ġshoes":3337,"Ġlimited":3338,"ĠElisab":3339,"ĠVoltaire":3340,"OP":3341,"ball":3342,"Ġcat":3343,"ĠSleev":3344,"ĠYoull":3345,"ĠShow":3346,"ĠMiy":3347,"Ġtwisted":3348,"ĠZadig":3349,"bot":3350,"uro":3351,"xy":3352,"inner":3353,"Ġshoe":3354,"ssey":3355,"ept":3356,"ĠJean":3357,"Ġwears":3358,"Ġcrop":3359,"ĠHandle":3360,"ENT":3361,"Ġenergy":3362,"Ġcape":3363,"Ġpick":3364,"Ġdu":3365,"ĠFranchi":3366,"ĠElisabetta":3367,"live":3368,"Ġstreetwear":3369,"ĠFerrag":3370,"Ġadorned":3371,"inity":3372,"Ġba":3373,"ĠLE":3374,"Ġcharacter":3375,"ĠTheory":3376,"Ġalm":3377,"Ġelevate":3378,"Ġartisan":3379,"Ġsustainable":3380,"lor":3381,"Ġsaid":3382,"nex":3383,"Ġhat":3384,"Ġgent":3385,"Ġheight":3386,"ĠVer":3387,"auty":3388,"//":3389,"iff":3390,"ĠCin":3391,"ĠStrap":3392,"ineered":3393,"Ġensures":3394,"Ġjogg":3395,"bag":3396,"eta":3397,"Ġloc":3398,"ĠTom":3399,"Ġdresses":3400,"ĠIssey":3401,"Ġpoplin":3402,"Khaki":3403,"OW":3404,"enta":3405,"liers":3406,"Ġcombines":3407,"Ġcamouflage":3408,"Ġbreezy":3409,"mble":3410,"ury":3411,"ref":3412,"Ġstyled":3413,"berg":3414,"Ġsuppliers":3415,"alloon":3416,"Ġplunge":3417,"Ġeffortlessly":3418,"Ġbecause":3419,"Mid":3420,"No":3421,"trend":3422,"Ġshimm":3423,"Ġvery":3424,"Ġcondition":3425,"ickey":3426,"Ġneeds":3427,"aroque":3428,"my":3429,"arling":3430,"ĠCrew":3431,"ĠBelt":3432,"Ġattention":3433,"Ġspirit":3434,"Ġpay":3435,"ster":3436,"inks":3437,"Ġcreases":3438,"Ġpatches":3439,"Ġracer":3440,"Ġcollections":3441,"ropical":3442,"Crafted":3443,"hof":3444,"Ġpast":3445,"Ġisnt":3446,"Ġyouve":3447,"arable":3448,"ĠRunhof":3449,"ĠTalbot":3450,"Ġcert":3451,"Ġpaper":3452,"ipes":3453,"ĠBar":3454,"ĠAdd":3455,"radient":3456,"ĠGanni":3457,"Founded":3458,"MA":3459,"SH":3460,"joy":3461,"Ġcle":3462,"Ġequ":3463,"ĠOf":3464,"ĠJeans":3465,"Ġstreets":3466,"EL":3467,"inished":3468,"ĠPER":3469,"Ġpatterns":3470,"OUT":3471,"ĠWhat":3472,"Ġfan":3473,"Ġtu":3474,"Ġstro":3475,"ĠAng":3476,"ĠBrow":3477,"Ġcustomer":3478,"ĠMiyake":3479,"Ġhapp":3480,"Ġleft":3481,"ĠSelf":3482,"cover":3483,"Ġcloth":3484,"Ġrenowned":3485,"Ġme":3486,"Ġkind":3487,"Ġconstructed":3488,"Ã¨":3489,"Ġcult":3490,"ĠGucci":3491,"Ġmotifs":3492,"Multi":3493,"Ġoil":3494,"ĠFully":3495,"unic":3496,"opher":3497,"Ġhelps":3498,"Ġwomen":3499,"ĠAmeric":3500,"Ġpictured":3501,"Ġfleece":3502,"erts":3503,"icking":3504,"Ġgarment":3505,"Ġattitude":3506,"Ġproport":3507,"ually":3508,"Ġballoon":3509,"Ġear":3510,"ĠMr":3511,"Ġunderst":3512,"ĠBecause":3513,"60":3514,"zing":3515,"Ġcord":3516,"idas":3517,"Ġask":3518,"meule":3519,"ĠDemeule":3520,"Ġexposed":3521,"ĠDemeuleme":3522,"ular":3523,"ibility":3524,"eau":3525,"race":3526,"Ġhot":3527,"Ġinner":3528,"ĠLee":3529,"amide":3530,"Ġsea":3531,"Ġsmocked":3532,"ĠDemeulemeester":3533,"Ġ+":3534,"Ġstones":3535,"ogram":3536,"Ġeasily":3537,"Ġhoriz":3538,"catching":3539,"selling":3540,"Ġimag":3541,"Ġtall":3542,"Ġpouch":3543,"Ġ\"\"":3544,"Ġrest":3545,"ĠApp":3546,"Ġjet":3547,"Ġstonewashed":3548,"mi":3549,"ĠSc":3550,"Ġdesigners":3551,"Ġwaterproof":3552,"Ġrainbow":3553,"OUTURE":3554,"siness":3555,"Ġtunic":3556,"ĠCOUTURE":3557,"Ġflair":3558,"Ġ30":3559,").\"":3560,"col":3561,"sing":3562,"wool":3563,"Ġhit":3564,"odern":3565,"Ġcarry":3566,"ountry":3567,"Ġrecogn":3568,"Essential":3569,"conic":3570,"orge":3571,"igit":3572,"Ġboy":3573,"ĠUnder":3574,"rows":3575,"Ġinserts":3576,"grain":3577,"Ġangora":3578,"11":3579,"ached":3580,"ĠShe":3581,"Ġsoftness":3582,"Ġgoldtone":3583,"Ġsizes":3584,"Ġempire":3585,"Ġillu":3586,"Lux":3587,"nce":3588,"eatures":3589,"oub":3590,"ented":3591,"ĠAM":3592,"oman":3593,"Ġexact":3594,"uses":3595,"Ġoriginal":3596,"ield":3597,"onia":3598,"Ġdye":3599,"Ġoutside":3600,"Ġcomplex":3601,"oke":3602,"Ġsandals":3603,"ĠBonus":3604,"Ġvertical":3605,"Time":3606,"Ġfree":3607,"Ġtrend":3608,"ano":3609,"ĠGu":3610,"Ġeng":3611,"fresh":3612,"Ġ200":3613,"EAN":3614,"Ġsour":3615,"Ġpig":3616,"etal":3617,"Ġstop":3618,"irky":3619,"ngle":3620,"acked":3621,"cru":3622,"Ġshapes":3623,"Summer":3624,"oint":3625,"ttes":3626,"ider":3627,"ontal":3628,"Ġlonger":3629,"ĠAs":3630,"used":3631,"Ġturned":3632,"Ġdefined":3633,"Ġcharming":3634,"Ġlarge":3635,"Com":3636,"Ġir":3637,"cktail":3638,"Ġdon":3639,"ĠTop":3640,"ĠTory":3641,"ĠLength":3642,"ĠMarc":3643,"otted":3644,"Ġ.":3645,"oned":3646,"Ġcosy":3647,"Ġund":3648,"Ġprotect":3649,"ACK":3650,"Ġjoggers":3651,"tly":3652,"wom":3653,"Ġsolid":3654,"Ġmilitary":3655,"thier":3656,"Ġbusiness":3657,"ĠSkin":3658,"Ġbroad":3659,"Ġpresents":3660,"arante":3661,"Ġloaf":3662,"ĠPERF":3663,"It":3664,"Theres":3665,"ving":3666,"zar":3667,"eral":3668,"Ġflorals":3669,"ĠAlexis":3670,"Ġcrisscross":3671,"evelop":3672,"://":3673,"AD":3674,"Ġcocktail":3675,"ttps":3676,"Ġpaint":3677,"ĠJacket":3678,"chool":3679,"pping":3680,"Ġrounded":3681,"âĢĿ":3682,"Ġlipstick":3683,"Ġda":3684,"ims":3685,"ĠVau":3686,"Ġsepar":3687,"Ġflare":3688,"nson":3689,"Ġtechni":3690,"ĠBrass":3691,"Ġmovement":3692,"ĠParisian":3693,"ctuated":3694,"Ġinspir":3695,"Ġhorizontal":3696,"ban":3697,"ges":3698,"Ġcelebr":3699,"Ġyarn":3700,"asy":3701,"Ġbutt":3702,"ĠJEAN":3703,"asting":3704,"Ġruffles":3705,"Bright":3706,"ita":3707,"even":3708,"ĠCase":3709,"ĠAN":3710,"ĠKors":3711,"Ġknows":3712,"Midnight":3713,"TOP":3714,"Ġiv":3715,"Ġpleats":3716,"aca":3717,"ĠChristian":3718,"Ġapproach":3719,"olution":3720,"Ġfilled":3721,"Ġtropical":3722,"ural":3723,"Ġmulticolor":3724,"Ġthin":3725,"Ġhint":3726,"ĠLim":3727,"agonal":3728,"Ġexcept":3729,"Ġcolours":3730,"arrings":3731,"Emb":3732,"ĠSem":3733,"ĠMOM":3734,"atures":3735,"ĠBrowne":3736,"ĠPERFECT":3737,"ĠMOMENT":3738,"Ġbur":3739,"ibly":3740,"Ġext":3741,"Ġlayers":3742,"ĠSleeve":3743,"orgeous":3744,">\"":3745,"inger":3746,"imum":3747,"amic":3748,"ateg":3749,"rylic":3750,"Ġduring":3751,"Ġshowcases":3752,"Ġutilitarian":3753,"Add":3754,"Ġaccessories":3755,"Ġbustier":3756,"Ġdate":3757,"ĠRab":3758,"Ġseamless":3759,"Ġincludes":3760,"www":3761,"ĠJEANS":3762,"ead":3763,"ha":3764,"Ġaut":3765,"Ġtuck":3766,"rait":3767,"reamlined":3768,"ĠBurch":3769,"ĠJohnson":3770,"Ġsocks":3771,"Nude":3772,"Ġpl":3773,"Ġhips":3774,"ortrait":3775,"ĠIf":3776,"Ġwearable":3777,".</":3778,"paca":3779,"rik":3780,"Ġsit":3781,"Ġties":3782,"isole":3783,"Ġhang":3784,"ĠEn":3785,"Ġsparkle":3786,"ironment":3787,"Ġivory":3788,"ym":3789,"zo":3790,"Ġbed":3791,"irro":3792,"Ġgradient":3793,"Ġlongline":3794,"rance":3795,"fess":3796,"pack":3797,"wel":3798,"Ġbir":3799,"ille":3800,"ĠAt":3801,"shine":3802,"ĠRow":3803,"aves":3804,"Ġstandard":3805,"onica":3806,"Ġdarts":3807,"Ġearrings":3808,"ĠOne":3809,"Ġscul":3810,"Ġ25":3811,"Ġbandeau":3812,"Ġdefines":3813,"Ġbasics":3814,"Ġguarante":3815,"ĠVauthier":3816,"crafted":3817,"crew":3818,"ji":3819,"orous":3820,"Ġwra":3821,"ication":3822,"Ġzig":3823,"Ġshearling":3824,"onymous":3825,"Ġdefinitely":3826,"Ġtort":3827,"Ġparis":3828,"Ġyouth":3829,"ĠBl":3830,"ĠDion":3831,"ĠLotan":3832,"ĠKeep":3833,"Ġdefine":3834,"ĠâĢĺ":3835,"Ġimprove":3836,"SS":3837,"cial":3838,"vas":3839,"era":3840,"Ġbone":3841,"ĠAL":3842,"Ġclassics":3843,"lance":3844,"lina":3845,"Ġsandro":3846,"Ġaccented":3847,"Ġincluding":3848,"><":3849,"Keep":3850,"jcrew":3851,"Ġsense":3852,"ĠChe":3853,"ĠVen":3854,"Ġselect":3855,"Ġstretchy":3856,"ĠNili":3857,"Ġcreative":3858,"Ġpuffed":3859,"Ġtheres":3860,"Ġenvironment":3861,"Ġengineered":3862,"ij":3863,"Ġty":3864,"ety":3865,"semble":3866,"ĠVince":3867,"Ġexclusive":3868,"ains":3869,"Ġwed":3870,"Ġshade":3871,"Ġsuch":3872,"Ġspin":3873,"Ġplace":3874,"Ġglow":3875,"Ġcowl":3876,"ĠUlla":3877,"Go":3878,"Looking":3879,"bor":3880,"dot":3881,"Ġlift":3882,"Ġliving":3883,"Ġbuild":3884,"ĠPark":3885,"ĠRol":3886,"ĠRos":3887,"Ġoffer":3888,"ĠShort":3889,"Ġperforated":3890,"Ġfriends":3891,"HE":3892,"Ġstacked":3893,"Ġheels":3894,"Ġnecklace":3895,"Ġvac":3896,"xedo":3897,"Ġcamisole":3898,"lower":3899,"brands":3900,"Ġmonogram":3901,"Ġmultiple":3902,"Ġpool":3903,"ĠDond":3904,"ĠYork":3905,"ecif":3906,"ĠÃ¡":3907,"Ġresult":3908,"Ġcrinkled":3909,"lev":3910,"Ġweight":3911,"Ġste":3912,"reak":3913,"Ġpost":3914,"ĠSept":3915,"Ġskull":3916,"Ġedgy":3917,"ordin":3918,"Ġanimals":3919,"Ġepaule":3920,"chesa":3921,"ĠCinq":3922,"></":3923,"eck":3924,"Ġbi":3925,"Ġhref":3926,"Ġgorgeous":3927,"andex":3928,"Ġshell":3929,"udes":3930,"Ġabs":3931,"ĠMarchesa":3932,"apper":3933,"Ġbeautifully":3934,"Ġwrong":3935,"Ġsafe":3936,"ĠDondup":3937,"'><":3938,"='":3939,"Fuchsia":3940,"nants":3941,"pink":3942,"uine":3943,"alt":3944,"Ġglass":3945,"ĠLight":3946,"Ġcons":3947,"Ġquirky":3948,"rada":3949,"Ġelong":3950,"Ġcommitted":3951,"Dress":3952,"ama":3953,"Ġensemble":3954,"Ġyears":3955,"color":3956,"tting":3957,"ĠFeatures":3958,"ashion":3959,"ived":3960,"ailored":3961,"ĠMonse":3962,"ho":3963,"https":3964,"ither":3965,"Ġinc":3966,"Ġfluid":3967,"Ġpalette":3968,"Ġlettering":3969,"collar":3970,"Ġdone":3971,"Ġmed":3972,"ids":3973,"Ġpom":3974,"ĠPima":3975,"izes":3976,"ĠVeronica":3977,"ICH":3978,"ump":3979,"ĠMag":3980,"ĠPorts":3981,"Ġnice":3982,"ĠGoose":3983,"Ġbell":3984,"unning":3985,"Ġbrass":3986,"Ġhandle":3987,"Ġstudded":3988,"lattering":3989,"Ġclothes":3990,"ecifically":3991,"Body":3992,"IT":3993,"Pale":3994,"ford":3995,"inos":3996,"ĠVER":3997,"ivid":3998,"ume":3999,"Ġfemininity":4000,"SACE":4001,"Shop":4002,"Ġgloss":4003,"ĠAmerican":4004,"ĠVERSACE":4005,"Bold":4006,"Cut":4007,"Pol":4008,"Portrait":4009,"Ġrev":4010,"lastane":4011,"ĠOrigin":4012,"Ġrunning":4013,"Ġperformance":4014,"Ġamount":4015,"Ġallows":4016,"Ġapplication":4017,"Ġpractical":4018,"%,":4019,"bb":4020,"onstructed":4021,"Ġbook":4022,"Ġbaroque":4023,"Ġdial":4024,"Ġomb":4025,"imens":4026,"ĠInt":4027,"acher":4028,"dyed":4029,"Ġviscose":4030,"Ġsupers":4031,"Ġdirection":4032,"Ġunderstated":4033,"ategory":4034,"Dont":4035,"ilian":4036,"asing":4037,"ĠSk":4038,"ĠCar":4039,"Ġinternal":4040,"ĠChest":4041,"Ġcombination":4042,"Ġhydr":4043,"Ġexactly":4044,"BD":4045,"cl":4046,"allet":4047,"Ġsleeved":4048,"ulated":4049,"ĠWij":4050,"Ġtry":4051,"ĠHel":4052,"ĠDoro":4053,"tuzar":4054,"ĠWijnants":4055,"tuzarra":4056,"detail":4057,"Ġpush":4058,"Ġleaf":4059,"Ġchange":4060,"agger":4061,"ĠYs":4062,"Ġdelivers":4063,"Ġ2020":4064,"Ġfoundation":4065,"ĠPeter":4066,"Ġcertain":4067,"Sw":4068,"away":4069,"ken":4070,"zag":4071,"etimes":4072,"Ġbuilt":4073,"season":4074,"ĠBro":4075,"aped":4076,"Ġshirts":4077,"Ġsophistication":4078,"ugg":4079,"ĠBrand":4080,"scar":4081,"ĠBeard":4082,"iver":4083,"si":4084,"aller":4085,"ionally":4086,"Ġdressed":4087,"Ġnu":4088,"ĠDickey":4089,"ĠDorothe":4090,"umacher":4091,"ified":4092,"Ġartist":4093,"ĠSchumacher":4094,"ĠRoch":4095,"panel":4096,"Ġlocally":4097,"Ġclear":4098,"Iconic":4099,"Ġdrop":4100,"ened":4101,"Ġreal":4102,"Ġrefresh":4103,"oto":4104,"ĠThats":4105,"Ġrol":4106,"Ġinflu":4107,"Ġ1961":4108,"ĠDorothee":4109,"17":4110,"As":4111,"vron":4112,"weather":4113,"Ġ*":4114,"Ġclimate":4115,"Ġripped":4116,"ĠLook":4117,"Ġlash":4118,"Ġglamorous":4119,"Ġshowcased":4120,"'ve":4121,"den":4122,"gn":4123,"Ġtaking":4124,"Ġterry":4125,"ĠCam":4126,"uty":4127,"Ġtemper":4128,"Ġexterior":4129,"Ġclose":4130,"Ġprotection":4131,"Ġpunctuated":4132,"eveloped":4133,"AS":4134,"los":4135,"Ġoutsole":4136,"ĠUPF":4137,"ĠChristopher":4138,"rosgrain":4139,"category":4140,"key":4141,"illy":4142,"Ġasymmetrical":4143,"Ġbrushed":4144,"Ġfunctional":4145,"Ġpersonal":4146,"roducing":4147,"yc":4148,"Â®":4149,"inimal":4150,"anne":4151,"orty":4152,"ĠGirl":4153,"Ġexudes":4154,"Ġadorable":4155,"iquid":4156,"idge":4157,"ĠMed":4158,"ĠMal":4159,"Ġupgrade":4160,"ĠStretch":4161,"Ġconditions":4162,"Ġtuxedo":4163,"Ġproportion":4164,"Ġepaulettes":4165,"Ġiron":4166,"Ġavailable":4167,"icouture":4168,"quis":4169,"ĠThat":4170,"ricate":4171,"Ġsilky":4172,"ĠEach":4173,"ĠHarr":4174,"Ġcontour":4175,"Ġalpaca":4176,"lazzo":4177,"Ġstructure":4178,"Ġ90":4179,"cret":4180,"ACKET":4181,"Ġinspiration":4182,"ĠSemicouture":4183,"Ind":4184,"wicking":4185,"Ġwid":4186,"Ġmark":4187,"ĠSU":4188,"Ġbackpack":4189,"Ġ15":4190,"Ġplan":4191,"Ġedition":4192,"Ġindigo":4193,"Cotton":4194,"Ġshimmering":4195,"OT":4196,"Sm":4197,"dress":4198,"ker":4199,"Ġfed":4200,"Ġmasc":4201,"ĠMAR":4202,"Ġhighly":4203,"oment":4204,"ĠMother":4205,"aftan":4206,"Ġhours":4207,"Ġinseam":4208,"ĠEng":4209,"Ġfinest":4210,"Ġcompart":4211,"Ġcreated":4212,"ĠPleats":4213,"Ġmeets":4214,"Ġagainst":4215,"hemian":4216,"Rose":4217,"now":4218,"ites":4219,"Ġdra":4220,"lax":4221,"Ġmirro":4222,"Ġrele":4223,"Ġchoo":4224,"ĠEmb":4225,"asha":4226,"itional":4227,"ĠSuper":4228,"ALL":4229,"Ġenhances":4230,"nsp":4231,"Ġur":4232,"Ġtape":4233,"Ġcm":4234,"etro":4235,"reme":4236,"chief":4237,"Ġstrappy":4238,"ĠLet":4239,"ĠOscar":4240,"Ġpalazzo":4241,"Ġheritage":4242,"What":4243,"Ġcontinues":4244,"lossom":4245,"ners":4246,"Ġstreamlined":4247,"tted":4248,"Ġmast":4249,"Ġwhisk":4250,"ĠĠĠĠĠĠĠĠĠĠĠĠĠĠĠĠĠĠĠĠĠĠĠĠĠĠĠĠĠĠĠĠĠĠĠĠĠĠĠĠĠĠĠĠĠĠĠĠ":4251,"ĠUV":4252,"Ġflutter":4253,"ilac":4254,"Ġalmost":4255,"Ġchoosing":4256,"Ġsle":4257,"arrow":4258,"Ġones":4259,"Ġchild":4260,"ĠGior":4261,"ĠRenta":4262,"Ġ13":4263,"endi":4264,"Ġdurability":4265,"ĠParker":4266,"hair":4267,"ks":4268,"Ġfill":4269,"lein":4270,"leur":4271,"isa":4272,"Ġstur":4273,"Ġstunning":4274,"chic":4275,"Ġwaiting":4276,"ĠPan":4277,"ĠVintage":4278,"iara":4279,"womens":4280,"SE":4281,"Ġdid":4282,"Ġmar":4283,"Ġmorn":4284,"als":4285,"Ġhad":4286,"artan":4287,"ĠJac":4288,"Ġsimply":4289,"ĠJaco":4290,"Ġboucl":4291,"Ġpaperbag":4292,"Every":4293,"Olivia":4294,"labor":4295,"ĠSlim":4296,"ĠSoft":4297,"ĠCont":4298,"ĠCent":4299,"Ġkick":4300,"shaped":4301,"ustic":4302,"Ġsocial":4303,"erful":4304,"Ġcanvas":4305,"Ġjungle":4306,"Ġtransp":4307,"Ġmaximum":4308,"Ġelegantly":4309,"Ġformal":4310,"Ġheads":4311,"ĠFilippa":4312,"Ġelse":4313,"Ġsecond":4314,"green":4315,"Ġmanufactures":4316,"Ġboyfriend":4317,"bble":4318,"but":4319,"ef":4320,"ono":4321,"Ġlust":4322,"aded":4323,"ĠKlein":4324,"Ġdiagonal":4325,"Ġreflect":4326,"Ġpads":4327,"Ġexperts":4328,"ĠSimple":4329,"pd":4330,"wood":4331,"ĠQu":4332,"Ġtight":4333,"Ġgym":4334,"ĠGi":4335,"Ġbraided":4336,"Ġsuiting":4337,"Ġoccasion":4338,"Ġjetted":4339,"ĠGiorg":4340,"Is":4341,"iole":4342,"Ġtoday":4343,"ĠCirc":4344,"ĠLBD":4345,"Ġdrape":4346,"Ġchevron":4347,"toe":4348,"ĠAltuzarra":4349,"ĠbouclÃ©":4350,"Tw":4351,"aps":4352,"emin":4353,"sw":4354,"ĠRa":4355,"ĠThen":4356,"Ġtextile":4357,"Ġunif":4358,"fitting":4359,"Ġacid":4360,"Ġworks":4361,"ĠMilan":4362,"derie":4363,"Ġaccentu":4364,"Ġcourse":4365,"Ġsupersoft":4366,"do":4367,"Ġcl":4368,"Ġbib":4369,"aring":4370,"Ġgrosgrain":4371,"Ġribbon":4372,"ĠAdr":4373,"ĠHarris":4374,"ien":4375,"ĠPat":4376,"quality":4377,"ĠChint":4378,"Ġplaysuit":4379,"Ġclutch":4380,"za":4381,"Ġreach":4382,"Ġclothing":4383,"acious":4384,"ucker":4385,"ĠWharf":4386,"erica":4387,"Ġcomplexion":4388,"kerchief":4389,"ĠChinti":4390,"Ġtumble":4391,"Ġwon":4392,"Ġdinner":4393,"ĠMer":4394,"ression":4395,"ĠPalm":4396,"ĠBott":4397,"Ġbeh":4398,"arden":4399,"Ġsexy":4400,"Ġfew":4401,"Ġ35":4402,"ĠBeauty":4403,"Ġutility":4404,"OLD":4405,"iffon":4406,"Ġtechniques":4407,"Whether":4408,"ities":4409,"Ġwond":4410,"ĠFleur":4411,"ode":4412,"covery":4413,"Ġblocked":4414,"ference":4415,"ĠRabanne":4416,"Ġelongated":4417,"amb":4418,"plated":4419,"Ġcirc":4420,"ared":4421,"Ġstart":4422,"Ġgift":4423,"ĠMid":4424,"ĠLan":4425,"Ġchiffon":4426,"Ġoverlay":4427,"Ġhandkerchief":4428,"iously":4429,"uroy":4430,"ĠAdriana":4431,"with":4432,"rome":4433,"ttail":4434,"irttail":4435,"ĠCalv":4436,"Ġbear":4437,"ays":4438,"izing":4439,"Ġflowy":4440,"ĠCalvin":4441,"Not":4442,"Ġplat":4443,"ista":4444,"ĠFla":4445,"ĠVis":4446,"Ġswimwear":4447,"Ġadding":4448,"Ġenjoy":4449,"Ġcroc":4450,"Ġcreamy":4451,"ĠPaco":4452,"Ġroomy":4453,"Ġmeeting":4454,"Ready":4455,"Ġpresenting":4456,"ĠCavalli":4457,"Ġurban":4458,"Ġuniform":4459,"On":4460,"hi":4461,"Ġself":4462,"Ġpalm":4463,"ĠFlat":4464,"Ġwaste":4465,"quoise":4466,"ĠGre":4467,"ĠInspired":4468,"Ġprinc":4469,"Ġacetate":4470,"Ġcapt":4471,"IND":4472,"graved":4473,"alvan":4474,"Ġfollow":4475,"Ġillustr":4476,"omania":4477,"fy":4478,"ten":4479,"Ġpur":4480,"Ġstamp":4481,"Ġshimmer":4482,"ĠCal":4483,"nty":4484,"ĠHow":4485,"ĠKane":4486,"Ġarr":4487,"embroidered":4488,"tuous":4489,"Ġnumber":4490,"24":4491,"DI":4492,"duty":4493,"Ġtest":4494,"Ġblan":4495,"ĠFil":4496,"ĠLud":4497,"ames":4498,"Ġ32":4499,"Ġwarmer":4500,"Ġpartial":4501,"Ġairy":4502,"fortable":4503,"itch":4504,"lain":4505,"ĠTime":4506,"ĠSil":4507,"Ġreg":4508,"ĠGO":4509,"aste":4510,"queen":4511,"Ġfrag":4512,"ĠAdjustable":4513,"Ġnaturally":4514,"ona":4515,"atility":4516,"isure":4517,"aries":4518,"Ġwithin":4519,"Ġhug":4520,"Ġriv":4521,"Ġgetting":4522,"mptuous":4523,"ĠColor":4524,"Ġthought":4525,"ĠFaux":4526,"Ġespecially":4527,"pected":4528,"Feel":4529,"Tonal":4530,"uces":4531,"lem":4532,"any":4533,"Ġheavy":4534,"ĠMat":4535,"ĠLang":4536,"ĠGalvan":4537,"Ġrange":4538,"Ġcrystals":4539,"Ġdots":4540,"Ġvibes":4541,"ĠappliquÃ©s":4542,"ega":4543,"Ġfibers":4544,"ĠLudlow":4545,"RO":4546,"Ġcity":4547,"Ġwood":4548,"Ġstorm":4549,"ĠMor":4550,"Ġvary":4551,"Ġnude":4552,"ĠEvery":4553,"illip":4554,"iven":4555,"ĠChiara":4556,"quem":4557,"Ġhandles":4558,"ĠSpun":4559,"Ġinsole":4560,"Ġoption":4561,"Ġbriefs":4562,"ĠBoasting":4563,"75":4564,"Ġama":4565,"estern":4566,"Ġfamil":4567,"ffee":4568,"ĠFendi":4569,"Ġkaftan":4570,"Ġwrink":4571,"Ġdrama":4572,"Ġass":4573,"Ġprom":4574,"Ġlov":4575,"arent":4576,"Ġposs":4577,"imono":4578,"Ġwage":4579,"ĠDetails":4580,"Ġspecifically":4581,"ĠOlivia":4582,"\"\")":4583,"usa":4584,"Lightweight":4585,"Ġprovide":4586,"ĠYours":4587,"Ġenhanced":4588,"Ġboundaries":4589,"Ġwrapped":4590,"quemus":4591,"Ecru":4592,"Ġaud":4593,"erling":4594,"Ġsterling":4595,"ida":4596,"Ġembod":4597,"Ġsemi":4598,"Ġimported":4599,"ewe":4600,"ĠNobody":4601,"ynonymous":4602,"ĠAngels":4603,"Ġcorduroy":4604,"Sky":4605,"bone":4606,"Ġtable":4607,"ision":4608,"iance":4609,"ĠStar":4610,"Ġdotted":4611,"Ġtheyre":4612,"zzi":4613,"Ġdoub":4614,"orable":4615,"Ġthick":4616,"ĠTO":4617,"ĠTag":4618,"blem":4619,"ĠPhillip":4620,"ĠRelaxed":4621,"arance":4622,"nexpected":4623,"Ġrecognised":4624,"Ġwidely":4625,"eminine":4626,"ah":4627,"flattering":4628,"mut":4629,"Ġlif":4630,"ĠFloor":4631,"ĠPocket":4632,"ĠDem":4633,"Ġadv":4634,"Ġcrease":4635,"umference":4636,"Ġquarter":4637,"Ġeyelet":4638,"Ġcami":4639,"Ġaccessory":4640,"Ġepit":4641,"Ġavi":4642,"Do":4643,"Olive":4644,"earance":4645,"Ġachi":4646,"urst":4647,"stand":4648,"ĠAv":4649,"ĠRose":4650,"unch":4651,"iley":4652,"Ġelements":4653,"liatore":4654,"ĠSmart":4655,"Ġmills":4656,"Ġloafers":4657,"Ġhanging":4658,"ĠTagliatore":4659,"wless":4660,"Ġer":4661,"Ġbean":4662,"Ġchang":4663,"Ġskirts":4664,"nthetic":4665,"illiant":4666,"Ġweave":4667,"....":4668,"Ġappearance":4669,"Ġembellishment":4670,"Ġbroderie":4671,"Ġgener":4672,"Bur":4673,"hel":4674,"hent":4675,"ĠCountry":4676,"Ġbohemian":4677,"ĠNike":4678,"printed":4679,"okhi":4680,"cred":4681,"Ġconfidence":4682,"ĠManokhi":4683,"Ġemail":4684,"JACKET":4685,"iner":4686,"itish":4687,"iding":4688,"iment":4689,"ĠSalv":4690,"Ġnarrow":4691,"aks":4692,"ĠRear":4693,"Ġ16":4694,"ĠHear":4695,"Ġknitwear":4696,"avorite":4697,"Ġsupple":4698,"Ġartisans":4699,"ĠCenter":4700,"Ask":4701,"dle":4702,"Ġtre":4703,"Ġtartan":4704,"ising":4705,"Ġkimono":4706,"Ġexquis":4707,"Ġnotes":4708,"Ġcurves":4709,"Ġcomplim":4710,"alen":4711,"Ġsays":4712,"ĠSkinny":4713,"Int":4714,"have":4715,"och":4716,"Ġliquid":4717,"Ġheat":4718,"ĠMont":4719,"ĠClos":4720,"ĠGia":4721,"Ġproves":4722,"Ġyouthful":4723,"ĠĠĠĠĠĠĠĠĠĠĠĠĠĠĠĠĠĠĠĠĠĠĠĠĠĠĠĠĠĠĠĠĠĠĠĠĠĠĠĠĠĠĠĠĠĠĠĠĠĠĠĠĊ":4724,"Elev":4725,"Take":4726,"aj":4727,"ience":4728,"loral":4729,"rÃ©":4730,"ndy":4731,"Ġinv":4732,"ĠMax":4733,"Ġrein":4734,"ĠLay":4735,"Ġplenty":4736,"Ġorder":4737,"Ġintricate":4738,"Ġsnake":4739,"Ġvisits":4740,"ĠJacobs":4741,"bar":4742,"Ġing":4743,"Ġplastic":4744,"laise":4745,"Ġshiny":4746,"ĠViv":4747,"ĠHoff":4748,"erfly":4749,"gundy":4750,"Ġmakeup":4751,"Ġdecad":4752,"ĠAdvis":4753,"Ġ197":4754,"ĠDegre":4755,"ĠAcrylic":4756,"Ġathletic":4757,"Hand":4758,"eddy":4759,"Ġmachine":4760,"Ġhues":4761,"ĠSend":4762,"Ġforget":4763,"ower":4764,"Ġalready":4765,"ĠMarco":4766,"Ġuneven":4767,"acul":4768,"Ġpinstripes":4769,"Ġmission":4770,"Ġblanket":4771,"ĠHoffman":4772,"Ġclass":4773,"Ġlou":4774,"Ġtoward":4775,"Ġlets":4776,"ĠPS":4777,"lub":4778,"stretch":4779,"ĠYves":4780,"Ġmohair":4781,"Ġdeconstructed":4782,"Ġcombine":4783,"Ġmoistur":4784,"hentic":4785,"ĠAdvisors":4786,"ĠDegreas":4787,"25":4788,"90":4789,"Ar":4790,"leather":4791,"Ġbeat":4792,"ĠSand":4793,"Ġlooked":4794,"Ġblous":4795,"Ġprocess":4796,"Ġ21":4797,"ĠShirttail":4798,"Ġstandout":4799,"ipping":4800,"ĠRober":4801,"Ġrolled":4802,"Get":4803,"ged":4804,"iya":4805,"Ġtell":4806,"onth":4807,"Ġleave":4808,"ĠTrous":4809,"iane":4810,"Ġintense":4811,"Ġcentre":4812,"Ġversatility":4813,"Ġ198":4814,"ĠNotte":4815,"Ġcups":4816,"Ġbeads":4817,"Ġluxuriously":4818,"Ġresist":4819,"Camel":4820,"clect":4821,"eled":4822,"yes":4823,"Ġact":4824,"Ġbad":4825,"ĠISA":4826,"ams":4827,"erfection":4828,"legant":4829,"Ġ27":4830,"Ġsequins":4831,"Ġsuperior":4832,"Ġicon":4833,"Shirt":4834,"inimalist":4835,"clectic":4836,"Dolce":4837,"around":4838,"hance":4839,"onat":4840,"Ġdapper":4841,"Ġdimens":4842,"Ġtot":4843,"lasting":4844,"Ġflawless":4845,"Ġcheek":4846,"Ġ44":4847,"ĠLoewe":4848,"Ġmorning":4849,"ĠJacquemus":4850,"Ġembodies":4851,"ĠSalvatore":4852,"HOW":4853,"Ple":4854,"iest":4855,"mond":4856,"Ġcal":4857,"amo":4858,"ĠGlass":4859,"ĠWhen":4860,"ilet":4861,"Ġtextures":4862,"Think":4863,"Ġcomprom":4864,"ringbone":4865,"Ġdiamonds":4866,"ĠIndia":4867,"ĠombrÃ©":4868,"ĠHelmut":4869,"ĠMedusa":4870,"ĠGiamb":4871,"Ġingred":4872,"jama":4873,"Ġtops":4874,"ĠSilk":4875,"ĠFOR":4876,"olo":4877,"ĠDec":4878,"ĠLux":4879,"lexible":4880,"Ġcompact":4881,"Ġmatter":4882,"Ġ80":4883,"ulent":4884,"Ġdefinition":4885,"Ġoccasions":4886,"rika":4887,"Ġvacation":4888,"Ġbehind":4889,"Ġfamily":4890,"IES":4891,"favorite":4892,"Ġap":4893,"Ġsized":4894,"lad":4895,"iping":4896,"ĠSur":4897,"Ġloop":4898,"ĠJu":4899,"Ġevent":4900,"ĠProfess":4901,"trim":4902,"ĠJohn":4903,"Indigo":4904,"come":4905,"ira":4906,"sel":4907,"Ġtosi":4908,"ask":4909,"ĠSl":4910,"ĠBack":4911,"loc":4912,"urex":4913,"ĠUma":4914,"Ġglides":4915,"Ġsparkling":4916,"Ġrenew":4917,"stitch":4918,"stitched":4919,"Ġvoluminous":4920,"ciag":4921,"Ġauthentic":4922,"Ġfederica":4923,"Ġamazing":4924,"alenciag":4925,"Signature":4926,"oon":4927,"ses":4928,"Ġbased":4929,"ĠCashmere":4930,"Ġreve":4931,"Ġsky":4932,"Ġsplash":4933,"ellent":4934,"haite":4935,"welove":4936,"brandswelove":4937,"âĦ":4938,"Ġsynonymous":4939,"Ġluminous":4940,"owder":4941,"Ġvari":4942,"ĠDis":4943,"Ġtrouser":4944,"Ġneon":4945,"Ġsmell":4946,"Ġ40":4947,"Ġbootie":4948,"Ġgentle":4949,"Ġstandards":4950,"Ġsturdy":4951,"Ġbeanie":4952,"âĦ¢":4953,"220":4954,"nown":4955,"other":4956,"pearl":4957,"ser":4958,"aily":4959,"ĠDiane":4960,"ibi":4961,"verted":4962,"Ġengraved":4963,"ĠBritish":4964,"Ġseasons":4965,"arrie":4966,"Ġphot":4967,"Ġentire":4968,"Ġglossy":4969,"%\"":4970,"Perfect":4971,"Rise":4972,"zip":4973,"Ãª":4974,"ureth":4975,"Ġgarden":4976,"ĠPrada":4977,"Ġvon":4978,"Ġbleach":4979,"ĠJul":4980,"Ġneeded":4981,"Ġbootcut":4982,"Ġgenuine":4983,"Ġfox":4984,"Ġmulticolored":4985,"ĠCircumference":4986,"Ġplatform":4987,"urethane":4988,"Are":4989,"Np":4990,"Nr":4991,"Nloc":4992,"gen":4993,"Ġtip":4994,"Ġtones":4995,"ero":4996,"Ġcoffee":4997,"Ġincred":4998,"ĠSIR":4999}